{
  "version": "1.0",
  "truncation": null,
  "padding": null,
  "added_tokens": [
    {
      "id": 0,
      "content": "<pad>",
      "single_word": false,
      "lstrip": false,
      "rstrip": false,
      "normalized": false,
      "special": true
    },
    {
      "id": 1,
      "content": "<unk>",
      "single_word": false,
      "lstrip": false,
      "rstrip": false,
      "normalized": false,
      "special": true
    },
    {
      "id": 2,
      "content": "<eos>",
      "single_word": false,
      "lstrip": false,
      "rstrip": false,
      "normalized": false,
      "special": true
    },
    {
      "id": 3,
      "content": "<|system|>",
      "single_word": false,
      "lstrip": false,
      "rstrip": false,
      "normalized": false,
      "special": true
    },
    {
      "id": 4,
      "content": "<|user|>",
      "single_word": false,
      "lstrip": false,
      "rstrip": false,
      "normalized": false,
      "special": true
    },
    {
      "id": 5,
      "content": "<|assistant|>",
      "single_word": false,
      "lstrip": false,
      "rstrip": false,
      "normalized": false,
      "special": true
    },
    {
      "id": 6,
      "content": "<think>",
      "single_word": false,
      "lstrip": false,
      "rstrip": false,
      "normalized": false,
      "special": true
    },
    {
      "id": 7,
      "content": "</think>",
      "single_word": false,
      "lstrip": false,
      "rstrip": false,
      "normalized": false,
      "special": true
    }
  ],
  "normalizer": null,
  "pre_tokenizer": {
    "type": "ByteLevel",
    "add_prefix_space": false,
    "trim_offsets": true,
    "use_regex": true
  },
  "post_processor": {
    "type": "ByteLevel",
    "add_prefix_space": true,
    "trim_offsets": false,
    "use_regex": true
  },
  "decoder": {
    "type": "ByteLevel",
    "add_prefix_space": true,
    "trim_offsets": true,
    "use_regex": true
  },
  "model": {
    "type": "BPE",
    "dropout": null,
    "unk_token": "<unk>",
    "continuing_subword_prefix": null,
    "end_of_word_suffix": null,
    "fuse_unk": false,
    "byte_fallback": false,
    "ignore_merges": false,
    "vocab": {
      "<pad>": 0,
      "<unk>": 1,
      "<eos>": 2,
      "<|system|>": 3,
      "<|user|>": 4,
      "<|assistant|>": 5,
      "<think>": 6,
      "</think>": 7,
      "!": 8,
      "\"": 9,
      "#": 10,
      "$": 11,
      "%": 12,
      "&": 13,
      "'": 14,
      "(": 15,
      ")": 16,
      "*": 17,
      "+": 18,
      ",": 19,
      "-": 20,
      ".": 21,
      "/": 22,
      "0": 23,
      "1": 24,
      "2": 25,
      "3": 26,
      "4": 27,
      "5": 28,
      "6": 29,
      "7": 30,
      "8": 31,
      "9": 32,
      ":": 33,
      ";": 34,
      "<": 35,
      "=": 36,
      ">": 37,
      "?": 38,
      "@": 39,
      "A": 40,
      "B": 41,
      "C": 42,
      "D": 43,
      "E": 44,
      "F": 45,
      "G": 46,
      "H": 47,
      "I": 48,
      "J": 49,
      "K": 50,
      "L": 51,
      "M": 52,
      "N": 53,
      "O": 54,
      "P": 55,
      "Q": 56,
      "R": 57,
      "S": 58,
      "T": 59,
      "U": 60,
      "V": 61,
      "W": 62,
      "X": 63,
      "Y": 64,
      "Z": 65,
      "[": 66,
      "\\": 67,
      "]": 68,
      "^": 69,
      "_": 70,
      "`": 71,
      "a": 72,
      "b": 73,
      "c": 74,
      "d": 75,
      "e": 76,
      "f": 77,
      "g": 78,
      "h": 79,
      "i": 80,
      "j": 81,
      "k": 82,
      "l": 83,
      "m": 84,
      "n": 85,
      "o": 86,
      "p": 87,
      "q": 88,
      "r": 89,
      "s": 90,
      "t": 91,
      "u": 92,
      "v": 93,
      "w": 94,
      "x": 95,
      "y": 96,
      "z": 97,
      "{": 98,
      "|": 99,
      "}": 100,
      "~": 101,
      "¡": 102,
      "¢": 103,
      "£": 104,
      "¤": 105,
      "¥": 106,
      "¦": 107,
      "§": 108,
      "¨": 109,
      "©": 110,
      "ª": 111,
      "«": 112,
      "¬": 113,
      "®": 114,
      "¯": 115,
      "°": 116,
      "±": 117,
      "²": 118,
      "³": 119,
      "´": 120,
      "µ": 121,
      "¶": 122,
      "·": 123,
      "¸": 124,
      "¹": 125,
      "º": 126,
      "»": 127,
      "¼": 128,
      "½": 129,
      "¾": 130,
      "¿": 131,
      "À": 132,
      "Á": 133,
      "Â": 134,
      "Ã": 135,
      "Ä": 136,
      "Å": 137,
      "Æ": 138,
      "Ç": 139,
      "È": 140,
      "É": 141,
      "Ê": 142,
      "Ë": 143,
      "Ì": 144,
      "Í": 145,
      "Î": 146,
      "Ï": 147,
      "Ð": 148,
      "Ñ": 149,
      "Ò": 150,
      "Ó": 151,
      "Ô": 152,
      "Õ": 153,
      "Ö": 154,
      "×": 155,
      "Ø": 156,
      "Ù": 157,
      "Ú": 158,
      "Û": 159,
      "Ü": 160,
      "Ý": 161,
      "Þ": 162,
      "ß": 163,
      "à": 164,
      "á": 165,
      "â": 166,
      "ã": 167,
      "ä": 168,
      "å": 169,
      "æ": 170,
      "ç": 171,
      "è": 172,
      "é": 173,
      "ê": 174,
      "ë": 175,
      "ì": 176,
      "í": 177,
      "î": 178,
      "ï": 179,
      "ð": 180,
      "ñ": 181,
      "ò": 182,
      "ó": 183,
      "ô": 184,
      "õ": 185,
      "ö": 186,
      "÷": 187,
      "ø": 188,
      "ù": 189,
      "ú": 190,
      "û": 191,
      "ü": 192,
      "ý": 193,
      "þ": 194,
      "ÿ": 195,
      "Ā": 196,
      "ā": 197,
      "Ă": 198,
      "ă": 199,
      "Ą": 200,
      "ą": 201,
      "Ć": 202,
      "ć": 203,
      "Ĉ": 204,
      "ĉ": 205,
      "Ċ": 206,
      "ċ": 207,
      "Č": 208,
      "č": 209,
      "Ď": 210,
      "ď": 211,
      "Đ": 212,
      "đ": 213,
      "Ē": 214,
      "ē": 215,
      "Ĕ": 216,
      "ĕ": 217,
      "Ė": 218,
      "ė": 219,
      "Ę": 220,
      "ę": 221,
      "Ě": 222,
      "ě": 223,
      "Ĝ": 224,
      "ĝ": 225,
      "Ğ": 226,
      "ğ": 227,
      "Ġ": 228,
      "ġ": 229,
      "Ģ": 230,
      "ģ": 231,
      "Ĥ": 232,
      "ĥ": 233,
      "Ħ": 234,
      "ħ": 235,
      "Ĩ": 236,
      "ĩ": 237,
      "Ī": 238,
      "ī": 239,
      "Ĭ": 240,
      "ĭ": 241,
      "Į": 242,
      "į": 243,
      "İ": 244,
      "ı": 245,
      "Ĳ": 246,
      "ĳ": 247,
      "Ĵ": 248,
      "ĵ": 249,
      "Ķ": 250,
      "ķ": 251,
      "ĸ": 252,
      "Ĺ": 253,
      "ĺ": 254,
      "Ļ": 255,
      "ļ": 256,
      "Ľ": 257,
      "ľ": 258,
      "Ŀ": 259,
      "ŀ": 260,
      "Ł": 261,
      "ł": 262,
      "Ń": 263,
      "Ġt": 264,
      "in": 265,
      "Ġa": 266,
      "he": 267,
      "on": 268,
      "re": 269,
      "er": 270,
      "ti": 271,
      "Ġthe": 272,
      "en": 273,
      "Ġs": 274,
      "es": 275,
      "Ġc": 276,
      "Ġo": 277,
      "ing": 278,
      "nd": 279,
      "al": 280,
      "or": 281,
      "Ġp": 282,
      "is": 283,
      "Ġw": 284,
      "at": 285,
      "an": 286,
      "it": 287,
      "Ġf": 288,
      "Ġin": 289,
      "ed": 290,
      "ou": 291,
      "Ġand": 292,
      "Ġb": 293,
      "ar": 294,
      "Ġof": 295,
      "tion": 296,
      "Ġm": 297,
      "Ġd": 298,
      "Ġto": 299,
      "le": 300,
      "ro": 301,
      "ic": 302,
      "as": 303,
      "ent": 304,
      "Ġe": 305,
      "Ġre": 306,
      "Ġh": 307,
      "st": 308,
      "om": 309,
      "Ġth": 310,
      "ve": 311,
      "il": 312,
      "ac": 313,
      "ation": 314,
      "ec": 315,
      "Ġl": 316,
      "ly": 317,
      "Ġn": 318,
      "ol": 319,
      "et": 320,
      "us": 321,
      "ĠT": 322,
      "id": 323,
      "Ġg": 324,
      "ur": 325,
      "ig": 326,
      "ĠA": 327,
      "ce": 328,
      "im": 329,
      "ow": 330,
      "ers": 331,
      "ĠS": 332,
      "Ġis": 333,
      "ĠC": 334,
      "el": 335,
      "Ġst": 336,
      "Ġfor": 337,
      "ra": 338,
      "ot": 339,
      "ul": 340,
      "Ġcon": 341,
      "ut": 342,
      "ir": 343,
      "Ġon": 344,
      "Ġpro": 345,
      "Ġy": 346,
      "am": 347,
      "ĠI": 348,
      "Ġas": 349,
      "uc": 350,
      "se": 351,
      "ment": 352,
      "ith": 353,
      "ess": 354,
      "ver": 355,
      "ay": 356,
      "Ġbe": 357,
      "Ġan": 358,
      "ts": 359,
      "un": 360,
      "âĢ": 361,
      "ate": 362,
      "Ġex": 363,
      "her": 364,
      "Ġthat": 365,
      "Ġwith": 366,
      "ad": 367,
      "ter": 368,
      "Ġyou": 369,
      "ĠP": 370,
      "ri": 371,
      "ab": 372,
      "Ġcom": 373,
      "ag": 374,
      "ĠM": 375,
      "ity": 376,
      "Ġwh": 377,
      "Ġor": 378,
      "res": 379,
      "Ġal": 380,
      "em": 381,
      "if": 382,
      "Ġit": 383,
      "Ġv": 384,
      "qu": 385,
      "ĠB": 386,
      "tic": 387,
      "pp": 388,
      "od": 389,
      "Ġare": 390,
      "th": 391,
      "ion": 392,
      "ĠThe": 393,
      "ist": 394,
      "and": 395,
      "ain": 396,
      "Ġ(": 397,
      "Ġen": 398,
      "op": 399,
      "oc": 400,
      "ke": 401,
      "ĠE": 402,
      "Ġhe": 403,
      "os": 404,
      "ore": 405,
      "ill": 406,
      "ĠD": 407,
      "igh": 408,
      "um": 409,
      "ch": 410,
      "ĠH": 411,
      "ĠW": 412,
      "ant": 413,
      "ĠR": 414,
      "ud": 415,
      "ere": 416,
      "ĠF": 417,
      "Ġde": 418,
      "Ġch": 419,
      "ld": 420,
      "iv": 421,
      "rom": 422,
      "Ġ1": 423,
      "ure": 424,
      "ies": 425,
      "Ġac": 426,
      "pl": 427,
      "Ġby": 428,
      "tive": 429,
      "rou": 430,
      "Ġle": 431,
      "'s": 432,
      "ort": 433,
      "Ġat": 434,
      "ations": 435,
      "Ġcan": 436,
      "Ġus": 437,
      "our": 438,
      "est": 439,
      "nt": 440,
      "Ġint": 441,
      "ust": 442,
      "ĠL": 443,
      "og": 444,
      "Ġr": 445,
      "Ġu": 446,
      "Ġfrom": 447,
      "ew": 448,
      "iz": 449,
      "per": 450,
      "all": 451,
      "ĠG": 452,
      "gh": 453,
      "Ġim": 454,
      "Ġse": 455,
      "Ġthis": 456,
      "Ġsh": 457,
      "Ġha": 458,
      "ial": 459,
      "Ġcomp": 460,
      "ff": 461,
      "ĠN": 462,
      "tions": 463,
      "ge": 464,
      "Ġsp": 465,
      "ance": 466,
      "Ġwas": 467,
      "are": 468,
      "ap": 469,
      "ard": 470,
      "ine": 471,
      "age": 472,
      "Ġpl": 473,
      "Ġad": 474,
      "orm": 475,
      "ep": 476,
      "ous": 477,
      "ical": 478,
      "ans": 479,
      "Ġtheir": 480,
      "Ġcont": 481,
      "ĠU": 482,
      "Ġ2": 483,
      "Ġwor": 484,
      "out": 485,
      "Ġwe": 486,
      "Ġab": 487,
      "ect": 488,
      "ĠO": 489,
      "ost": 490,
      "ther": 491,
      "Ġinc": 492,
      "Ġres": 493,
      "ence": 494,
      "Ġun": 495,
      "iti": 496,
      "ated": 497,
      "ight": 498,
      "king": 499,
      "ide": 500,
      "vel": 501,
      "ip": 502,
      "Ġnot": 503,
      "âĢĻ": 504,
      "Ġsu": 505,
      "ong": 506,
      "ome": 507,
      "ign": 508,
      "duc": 509,
      "Ġyour": 510,
      "ear": 511,
      "able": 512,
      "end": 513,
      "hen": 514,
      "ell": 515,
      "Ġhave": 516,
      "ich": 517,
      "ual": 518,
      "enti": 519,
      "form": 520,
      "act": 521,
      "ass": 522,
      "Ġdis": 523,
      "ating": 524,
      "ould": 525,
      "ib": 526,
      "Ġtr": 527,
      "Ġapp": 528,
      "art": 529,
      "ĠTh": 530,
      "ct": 531,
      "ast": 532,
      "ary": 533,
      "ĠâĢ": 534,
      "ents": 535,
      "Ġimp": 536,
      "ks": 537,
      "Ġwill": 538,
      "ive": 539,
      "ces": 540,
      "ĠJ": 541,
      "Ġ\"": 542,
      "cess": 543,
      "ĠIn": 544,
      "Ġall": 545,
      "The": 546,
      "Ġj": 547,
      "Ġne": 548,
      "Ġk": 549,
      "ile": 550,
      "ue": 551,
      "Ġman": 552,
      "av": 553,
      "ia": 554,
      "nder": 555,
      "Ġthey": 556,
      "ress": 557,
      "Ġar": 558,
      "00": 559,
      "ike": 560,
      "Ġper": 561,
      "ach": 562,
      "Ġcl": 563,
      "ire": 564,
      "ition": 565,
      "uch": 566,
      "ors": 567,
      "ind": 568,
      "Ġem": 569,
      "Ġwhich": 570,
      "Ġ-": 571,
      "Ġqu": 572,
      "ater": 573,
      "Ġme": 574,
      "ood": 575,
      "ry": 576,
      "ĠSt": 577,
      "Ġinto": 578,
      "rough": 579,
      "ments": 580,
      "ace": 581,
      "ail": 582,
      "Ġpre": 583,
      "ack": 584,
      "Ġhas": 585,
      "Ġcomm": 586,
      "Ġcons": 587,
      "ase": 588,
      "ities": 589,
      "Ġev": 590,
      "Ġpr": 591,
      "tiv": 592,
      "ful": 593,
      "ens": 594,
      "yst": 595,
      "ose": 596,
      "Ġmore": 597,
      "ult": 598,
      "Ġother": 599,
      "Ġits": 600,
      "oll": 601,
      "Ġind": 602,
      "Ġout": 603,
      "ally": 604,
      "|>": 605,
      "<|": 606,
      "ord": 607,
      "Ġthese": 608,
      "ak": 609,
      "ild": 610,
      "ech": 611,
      "uring": 612,
      "--": 613,
      "ake": 614,
      "so": 615,
      "Ġlike": 616,
      "ory": 617,
      "Ġabout": 618,
      "ates": 619,
      "ystem": 620,
      "Ġdo": 621,
      "Ġbut": 622,
      "Ġhis": 623,
      "Ġro": 624,
      "ons": 625,
      "olog": 626,
      "ie": 627,
      "Ġass": 628,
      "ub": 629,
      "Ġprov": 630,
      "Ġsc": 631,
      "Ġunder": 632,
      "erv": 633,
      "Ġtim": 634,
      "ang": 635,
      "one": 636,
      "ll": 637,
      "Ġstr": 638,
      "ting": 639,
      "oo": 640,
      "Ġone": 641,
      "Ġwho": 642,
      "Ġrec": 643,
      "Ġdes": 644,
      "ility": 645,
      "ms": 646,
      "ĠCh": 647,
      "Ġup": 648,
      "ĠY": 649,
      "Ġso": 650,
      "Ġpar": 651,
      "lic": 652,
      "ish": 653,
      "ĠK": 654,
      "Ġover": 655,
      "Ġtra": 656,
      "Ġstud": 657,
      "Ġbet": 658,
      "ious": 659,
      "now": 660,
      ").": 661,
      "Ġoff": 662,
      "ame": 663,
      "ite": 664,
      "velop": 665,
      "lud": 666,
      "Ġalso": 667,
      "ning": 668,
      "over": 669,
      "Ġcre": 670,
      "we": 671,
      "ber": 672,
      "tern": 673,
      "ple": 674,
      "Ġeff": 675,
      "ount": 676,
      "les": 677,
      "ond": 678,
      "ays": 679,
      "ov": 680,
      "ph": 681,
      "ice": 682,
      "ound": 683,
      "Ġthrough": 684,
      "Ġrel": 685,
      "ative": 686,
      "ark": 687,
      "Ġte": 688,
      "ific": 689,
      "ures": 690,
      "ric": 691,
      "Ġsa": 692,
      "fere": 693,
      "here": 694,
      "te": 695,
      "ys": 696,
      "Ġ19": 697,
      "Ġwhen": 698,
      "ĠThis": 699,
      "Ġbec": 700,
      "Ġhow": 701,
      "aus": 702,
      "Ġinv": 703,
      "ĠV": 704,
      "Ġinclud": 705,
      "pt": 706,
      "very": 707,
      "Ġwere": 708,
      "ings": 709,
      "anc": 710,
      "sw": 711,
      "row": 712,
      "Ġsuch": 713,
      "Ġthem": 714,
      "Ġag": 715,
      "rib": 716,
      "round": 717,
      "Ġreg": 718,
      "ne": 719,
      "Ġpe": 720,
      "echn": 721,
      "tim": 722,
      "ree": 723,
      "Ġam": 724,
      "Ġsome": 725,
      "ular": 726,
      "ational": 727,
      "ĠIt": 728,
      "stand": 729,
      "Ġour": 730,
      "alth": 731,
      "als": 732,
      "âĢĿ": 733,
      "ten": 734,
      "ough": 735,
      "Ġdevelop": 736,
      "Ġtime": 737,
      "Ġgen": 738,
      "ased": 739,
      "ĠUn": 740,
      "Ġtrans": 741,
      "ower": 742,
      "oth": 743,
      "Ġmay": 744,
      "ef": 745,
      "tain": 746,
      "Ġins": 747,
      "istant": 748,
      "reat": 749,
      "Ġfe": 750,
      "Ġthan": 751,
      "irst": 752,
      "ren": 753,
      "Ġop": 754,
      "enc": 755,
      "Ġrep": 756,
      "ions": 757,
      "Ġthere": 758,
      "ob": 759,
      "swer": 760,
      "ove": 761,
      "Ġpos": 762,
      "Ġexper": 763,
      "yp": 764,
      "Ġdif": 765,
      "Ġpers": 766,
      "Ġyear": 767,
      "Ġknow": 768,
      "ential": 769,
      "Ġph": 770,
      "Ġexp": 771,
      "ween": 772,
      "ian": 773,
      "Ġexpl": 774,
      "old": 775,
      "ues": 776,
      "hip": 777,
      "Ġnew": 778,
      "Ġhel": 779,
      "lect": 780,
      "Ġacc": 781,
      "mer": 782,
      "xt": 783,
      "Ġspec": 784,
      "hes": 785,
      "Ġbetween": 786,
      "Ġneed": 787,
      "ruc": 788,
      "ĠĠ": 789,
      "Ġproduc": 790,
      "Ġ20": 791,
      "Ġhelp": 792,
      "dition": 793,
      "pport": 794,
      "Ġrem": 795,
      "Ġdec": 796,
      "Ġfl": 797,
      "pec": 798,
      "ss": 799,
      "hed": 800,
      "Ġbeen": 801,
      "ĠâĢľ": 802,
      "Ġsign": 803,
      "eg": 804,
      "ople": 805,
      "tical": 806,
      "Ġbl": 807,
      "Ġno": 808,
      "Ġtechn": 809,
      "ience": 810,
      "oin": 811,
      "its": 812,
      "ness": 813,
      "Ġtw": 814,
      "In": 815,
      "iew": 816,
      "Ġher": 817,
      "ise": 818,
      "ĠWh": 819,
      "Ġra": 820,
      "oy": 821,
      "Ġ3": 822,
      "ollow": 823,
      "Ġdisc": 824,
      "Ġgo": 825,
      "Ġinter": 826,
      "Ġany": 827,
      "Ġanswer": 828,
      "Ġvar": 829,
      "iqu": 830,
      "),": 831,
      "Ġwhat": 832,
      "fter": 833,
      "Ġwhile": 834,
      "ction": 835,
      "gan": 836,
      "Ġwork": 837,
      "Ġhigh": 838,
      "red": 839,
      "Ġexam": 840,
      "elf": 841,
      "Ġdet": 842,
      "ven": 843,
      "ask": 844,
      "ĠCon": 845,
      "ever": 846,
      "Ġpeople": 847,
      "ines": 848,
      "ateg": 849,
      "Ġcol": 850,
      "eth": 851,
      "ĠPro": 852,
      "Ġhad": 853,
      "Ġif": 854,
      "Ġpres": 855,
      "Ġinst": 856,
      "ati": 857,
      "aking": 858,
      "Ġinf": 859,
      "ĠAn": 860,
      "Ġwould": 861,
      "cl": 862,
      "ible": 863,
      "ath": 864,
      "ĠEn": 865,
      "ook": 866,
      "erm": 867,
      "Ġfollow": 868,
      "ural": 869,
      "ving": 870,
      "Ġmost": 871,
      "Ġhealth": 872,
      "Ġfirst": 873,
      "Ġcommun": 874,
      "ution": 875,
      "Ġsec": 876,
      "Ġinform": 877,
      "ward": 878,
      "Ġdiffere": 879,
      "ause": 880,
      "Ġsystem": 881,
      "Ġsur": 882,
      "ru": 883,
      "Ġprovid": 884,
      "ivers": 885,
      "erg": 886,
      "ĠCom": 887,
      "Ġsub": 888,
      "ink": 889,
      "ife": 890,
      "rit": 891,
      "ool": 892,
      "Ġtwo": 893,
      "iss": 894,
      "Ġob": 895,
      "own": 896,
      "rop": 897,
      "ata": 898,
      "Ġrequ": 899,
      "Ġresp": 900,
      "Ġwhere": 901,
      "arch": 902,
      "Ġmod": 903,
      "ted": 904,
      "Ġbu": 905,
      "Ġperson": 906,
      "Ġprocess": 907,
      "ram": 908,
      "ology": 909,
      "aw": 910,
      "Ġlead": 911,
      "Ġke": 912,
      "Ġuse": 913,
      "Ġduring": 914,
      "ivid": 915,
      "oci": 916,
      "Ġunderstand": 917,
      "Ġpol": 918,
      "ange": 919,
      "Ġonly": 920,
      "ets": 921,
      "ied": 922,
      "Ġcomple": 923,
      "ize": 924,
      "Ġadv": 925,
      "Ġext": 926,
      "Ġmain": 927,
      "Ġworld": 928,
      "ices": 929,
      "Ġloc": 930,
      "tit": 931,
      "Ġlong": 932,
      "ered": 933,
      "Ġlear": 934,
      "Ġtask": 935,
      "ily": 936,
      "ality": 937,
      "ves": 938,
      "Ġserv": 939,
      "ges": 940,
      "ider": 941,
      "ĠâĢĵ": 942,
      "Ġques": 943,
      "Ġval": 944,
      "ĠHe": 945,
      "Ġgener": 946,
      "iness": 947,
      "ble": 948,
      "Ġref": 949,
      "Ġsk": 950,
      "ci": 951,
      "fore": 952,
      "ourse": 953,
      "Ġused": 954,
      "Ġed": 955,
      "Ġpart": 956,
      "Ġboth": 957,
      "Ġmed": 958,
      "arm": 959,
      "Ġsim": 960,
      "Ġform": 961,
      "Ġsm": 962,
      "ĠEx": 963,
      "ĠAs": 964,
      "rac": 965,
      "ft": 966,
      "Ġadd": 967,
      "wn": 968,
      "Ġwell": 969,
      "ands": 970,
      "Ġatt": 971,
      "ection": 972,
      "led": 973,
      "ages": 974,
      "Ġcould": 975,
      "Ġmany": 976,
      "ability": 977,
      "ized": 978,
      "ern": 979,
      "get": 980,
      "----": 981,
      "Ġpot": 982,
      "Ġincre": 983,
      "Ġeng": 984,
      "Ġdesign": 985,
      "ital": 986,
      "ick": 987,
      "Ġ201": 988,
      "Ġchild": 989,
      "ĠAd": 990,
      "ividual": 991,
      "roduc": 992,
      "Ġperform": 993,
      "ining": 994,
      "Ġprac": 995,
      "ty": 996,
      "ature": 997,
      "ety": 998,
      "ights": 999,
      "Ġco": 1000,
      "Ġgrow": 1001,
      "Ġpartic": 1002,
      "ade": 1003,
      "tics": 1004,
      "ited": 1005,
      "Ġprog": 1006,
      "cc": 1007,
      "Ġimport": 1008,
      "II": 1009,
      "Ġplay": 1010,
      "fic": 1011,
      "Ġindividual": 1012,
      "oun": 1013,
      "ved": 1014,
      "ering": 1015,
      "**": 1016,
      "Ġcap": 1017,
      "iven": 1018,
      "Ġear": 1019,
      "ences": 1020,
      "other": 1021,
      "Ġ'": 1022,
      "Ġnum": 1023,
      "Ġmark": 1024,
      "Ġsignific": 1025,
      "Ġmake": 1026,
      "iron": 1027,
      "ron": 1028,
      "ants": 1029,
      "Ġtyp": 1030,
      "ism": 1031,
      "ects": 1032,
      "Ġ4": 1033,
      "Ġvis": 1034,
      "Ġcare": 1035,
      "view": 1036,
      "Ġshould": 1037,
      "Ġaut": 1038,
      "uss": 1039,
      "Ġens": 1040,
      "Ġdata": 1041,
      "Ġset": 1042,
      "Ġsee": 1043,
      "ĠHow": 1044,
      "Ġafter": 1045,
      "ins": 1046,
      "til": 1047,
      "Ġprom": 1048,
      "Ġinformation": 1049,
      "ublic": 1050,
      "por": 1051,
      "ĠBy": 1052,
      "Ġchar": 1053,
      "usiness": 1054,
      "ross": 1055,
      "ather": 1056,
      "ases": 1057,
      "ective": 1058,
      "Ġallow": 1059,
      "urn": 1060,
      "com": 1061,
      "ps": 1062,
      "Ġeach": 1063,
      "Ġsol": 1064,
      "Ġthose": 1065,
      "Ġstep": 1066,
      "Ġorgan": 1067,
      "Ġdifferent": 1068,
      "Ġevery": 1069,
      "ics": 1070,
      "meric": 1071,
      "Ġcar": 1072,
      "ĠYou": 1073,
      "Ġshe": 1074,
      "con": 1075,
      "Ġeven": 1076,
      "Ġdist": 1077,
      "Ġdem": 1078,
      "Ġrese": 1079,
      "tis": 1080,
      "Ġhum": 1081,
      "'t": 1082,
      "ris": 1083,
      "uccess": 1084,
      "ically": 1085,
      "usion": 1086,
      "fy": 1087,
      "Ġyears": 1088,
      "You": 1089,
      "Ġfound": 1090,
      "ject": 1091,
      "Ġvarious": 1092,
      "Ġgu": 1093,
      "Ġback": 1094,
      "ĠAr": 1095,
      "Ġmust": 1096,
      "Ġwater": 1097,
      "Ġcor": 1098,
      "Ġgl": 1099,
      "..": 1100,
      "ĠRe": 1101,
      "allen": 1102,
      "Ġfam": 1103,
      "ency": 1104,
      "Ġconc": 1105,
      "Ġ5": 1106,
      "Ġbel": 1107,
      "ĠFor": 1108,
      "ym": 1109,
      "Ġcent": 1110,
      "Ġstrateg": 1111,
      "Ġpop": 1112,
      "viron": 1113,
      "Ġdel": 1114,
      "ually": 1115,
      "user": 1116,
      "Ġess": 1117,
      "Ġfin": 1118,
      "Ġinvol": 1119,
      "Ġusing": 1120,
      "Ġ200": 1121,
      "ribut": 1122,
      "raph": 1123,
      "Ġcount": 1124,
      "agement": 1125,
      "Ġmin": 1126,
      "Ġdoes": 1127,
      "assistant": 1128,
      "Ġincluding": 1129,
      "Ġprof": 1130,
      "chool": 1131,
      "Ġend": 1132,
      "Ġmus": 1133,
      "izing": 1134,
      "ork": 1135,
      "Ġdi": 1136,
      "Ġfact": 1137,
      "ĠAmeric": 1138,
      "els": 1139,
      "Ġcur": 1140,
      "ĠAl": 1141,
      "Ġhist": 1142,
      "Ġlife": 1143,
      "Ġlar": 1144,
      "Ġfac": 1145,
      "itive": 1146,
      "ization": 1147,
      "Ġdep": 1148,
      "Th": 1149,
      "Ġoften": 1150,
      "Ġconf": 1151,
      "Ġbeing": 1152,
      "Ġcontin": 1153,
      "iel": 1154,
      "ately": 1155,
      "Ġstudents": 1156,
      "St": 1157,
      "Ġquestion": 1158,
      "itions": 1159,
      "ax": 1160,
      "ocial": 1161,
      "Ġanal": 1162,
      "und": 1163,
      "Ġmem": 1164,
      "Ġimpro": 1165,
      "ĠWe": 1166,
      "Ġpower": 1167,
      "ocus": 1168,
      "Ġdevelopment": 1169,
      "Ġfind": 1170,
      "Ġdef": 1171,
      "Ġown": 1172,
      "ties": 1173,
      "day": 1174,
      ".,": 1175,
      "Ġjust": 1176,
      "ption": 1177,
      "Ġele": 1178,
      "Ġav": 1179,
      "tives": 1180,
      "Ġfun": 1181,
      "line": 1182,
      "Ġequ": 1183,
      "Ġappro": 1184,
      "system": 1185,
      "Ġprot": 1186,
      "Ġsuccess": 1187,
      "lish": 1188,
      "Ġfollowing": 1189,
      "ug": 1190,
      "Ġsignificant": 1191,
      "Ġbefore": 1192,
      "ances": 1193,
      "Ġid": 1194,
      ".\"": 1195,
      "ently": 1196,
      "Ġconsider": 1197,
      "Ġeduc": 1198,
      "Ġmon": 1199,
      "Ġsaid": 1200,
      "any": 1201,
      "less": 1202,
      "Ġbecause": 1203,
      "Ġprovide": 1204,
      "io": 1205,
      "Ġent": 1206,
      "Ġagain": 1207,
      "Ġbusiness": 1208,
      "Ġway": 1209,
      "Ġmight": 1210,
      "Ġthen": 1211,
      "ĠThese": 1212,
      "ared": 1213,
      "oring": 1214,
      "Ġcall": 1215,
      "ici": 1216,
      "ources": 1217,
      "Ġget": 1218,
      "Ġlevel": 1219,
      "Ġwithin": 1220,
      "ds": 1221,
      "Ġread": 1222,
      "Ġshow": 1223,
      "overn": 1224,
      "urther": 1225,
      "Ġposs": 1226,
      "Ġpotential": 1227,
      "ling": 1228,
      "Ġassistant": 1229,
      "Ġreal": 1230,
      "Ġchallen": 1231,
      "Ġstate": 1232,
      "tle": 1233,
      "Ġfocus": 1234,
      "ĠThey": 1235,
      "ĠIm": 1236,
      "Ġsent": 1237,
      "vers": 1238,
      "par": 1239,
      "Ġgiven": 1240,
      "Ġsupport": 1241,
      "Ġenviron": 1242,
      "Ġgra": 1243,
      "ock": 1244,
      "Ġbr": 1245,
      "Ġcle": 1246,
      "Ġaround": 1247,
      "ody": 1248,
      "ination": 1249,
      "au": 1250,
      "Ġhim": 1251,
      "ples": 1252,
      "enef": 1253,
      "irect": 1254,
      "roduction": 1255,
      "abor": 1256,
      "air": 1257,
      "land": 1258,
      "ustom": 1259,
      "orts": 1260,
      "ture": 1261,
      "ision": 1262,
      "rol": 1263,
      "up": 1264,
      "Ġche": 1265,
      "aging": 1266,
      "clusion": 1267,
      "Ġstudy": 1268,
      "ral": 1269,
      "ix": 1270,
      "Ġcult": 1271,
      "Ġaff": 1272,
      "Ġmarket": 1273,
      "Ġdown": 1274,
      "Ġgrou": 1275,
      "akes": 1276,
      "Ġser": 1277,
      "acter": 1278,
      "Ġmuch": 1279,
      "nce": 1280,
      "ĠDe": 1281,
      "Ġidenti": 1282,
      "Ġbeh": 1283,
      "Ġbuild": 1284,
      "Ġpur": 1285,
      "Ġwithout": 1286,
      "Ġinclude": 1287,
      "ique": 1288,
      "ditional": 1289,
      "ration": 1290,
      "Ġlet": 1291,
      "ex": 1292,
      "Ġ&": 1293,
      "ected": 1294,
      "Ġamong": 1295,
      "ince": 1296,
      "ars": 1297,
      "Ġconn": 1298,
      "ale": 1299,
      "Ġmen": 1300,
      "aterial": 1301,
      "Ġiss": 1302,
      "ĠAI": 1303,
      "Ġrequire": 1304,
      "ills": 1305,
      "Ġactiv": 1306,
      "Ġris": 1307,
      "ental": 1308,
      "ier": 1309,
      "Ġ18": 1310,
      "Wh": 1311,
      "Ġmade": 1312,
      "ains": 1313,
      "ĠInd": 1314,
      "Ġmy": 1315,
      "du": 1316,
      "Ġfood": 1317,
      "Ġtake": 1318,
      "Ġvery": 1319,
      "ories": 1320,
      "Ġplan": 1321,
      "ner": 1322,
      "ĠInt": 1323,
      "Ġprev": 1324,
      "Ġpri": 1325,
      "pportun": 1326,
      "ging": 1327,
      "Ġrelations": 1328,
      "ession": 1329,
      "Ġaccess": 1330,
      "by": 1331,
      "Ġmul": 1332,
      "Ġpass": 1333,
      "to": 1334,
      "ished": 1335,
      "Ġsaf": 1336,
      "Ġbased": 1337,
      "ists": 1338,
      "lu": 1339,
      "Ġresearch": 1340,
      "ergy": 1341,
      "Ġless": 1342,
      "ave": 1343,
      "Ġoper": 1344,
      "itle": 1345,
      "wards": 1346,
      "Ġcourse": 1347,
      "Ġdetail": 1348,
      "Ġpublic": 1349,
      "Ġaw": 1350,
      "ash": 1351,
      "Ġunderstanding": 1352,
      "Ġtre": 1353,
      "ication": 1354,
      "Ġexample": 1355,
      "ined": 1356,
      "Ġimportant": 1357,
      "Ġsocial": 1358,
      "bers": 1359,
      "ĠWhile": 1360,
      "ense": 1361,
      "Ġsmall": 1362,
      "Ġmaintain": 1363,
      "Ġmet": 1364,
      "ploy": 1365,
      "Ġbre": 1366,
      "iving": 1367,
      "Ġpoin": 1368,
      "Ġenc": 1369,
      "Ġrele": 1370,
      "ording": 1371,
      "Ġgood": 1372,
      "Ġpersonal": 1373,
      "Ġest": 1374,
      "ulation": 1375,
      "ĠNew": 1376,
      "ger": 1377,
      "Ġcho": 1378,
      "the": 1379,
      "Ġsame": 1380,
      "Ġkey": 1381,
      "Ġes": 1382,
      "Ġbenef": 1383,
      "Ġenh": 1384,
      "Ġdue": 1385,
      "inal": 1386,
      "Ġhuman": 1387,
      "Ġrole": 1388,
      "ract": 1389,
      "erest": 1390,
      "oh": 1391,
      "Ġproper": 1392,
      "acy": 1393,
      "ĠHowever": 1394,
      "ĠIf": 1395,
      "Ġ6": 1396,
      "ethod": 1397,
      "Ġtoo": 1398,
      "oss": 1399,
      "fully": 1400,
      "ĠSp": 1401,
      "amp": 1402,
      "Ġschool": 1403,
      "Ġmean": 1404,
      "Ġproble": 1405,
      "ilities": 1406,
      "Ġclass": 1407,
      "Ġbo": 1408,
      "Ġmaterial": 1409,
      "Ġmat": 1410,
      "ury": 1411,
      "Ġimm": 1412,
      "Ġunit": 1413,
      "Ġchildren": 1414,
      "ertain": 1415,
      "ards": 1416,
      "Ġcustom": 1417,
      "ĠRes": 1418,
      "tice": 1419,
      "Ġwrit": 1420,
      "ways": 1421,
      "Ġstand": 1422,
      "Ġapplic": 1423,
      "ries": 1424,
      "Ġsl": 1425,
      "Ġthough": 1426,
      "iversity": 1427,
      "cept": 1428,
      "Ġexperi": 1429,
      "âĢĶ": 1430,
      "Ġeffective": 1431,
      "ior": 1432,
      "Ġcommon": 1433,
      "Ġsever": 1434,
      "Ġsit": 1435,
      "Ġopportun": 1436,
      "Ġgovern": 1437,
      "Ġleg": 1438,
      "Ġcontribut": 1439,
      "ĠEng": 1440,
      "oura": 1441,
      "ogn": 1442,
      "Ġlit": 1443,
      "ason": 1444,
      "Ġlearn": 1445,
      "ead": 1446,
      "utions": 1447,
      "ouse": 1448,
      "Ġenvironment": 1449,
      "der": 1450,
      "Ġocc": 1451,
      "Ġfil": 1452,
      "Ġacross": 1453,
      "asing": 1454,
      "Ġpresent": 1455,
      "Ġhand": 1456,
      "till": 1457,
      "angu": 1458,
      "tices": 1459,
      "ĠSh": 1460,
      "ah": 1461,
      "ibility": 1462,
      "Ġgrowth": 1463,
      "ograph": 1464,
      "ĠQ": 1465,
      "Ġsupp": 1466,
      "read": 1467,
      "Ġbest": 1468,
      "ield": 1469,
      "Ġresult": 1470,
      "Ġthink": 1471,
      "Ġexperience": 1472,
      "ecess": 1473,
      "ĠSc": 1474,
      "19": 1475,
      "erc": 1476,
      "Ġthree": 1477,
      "Ġdirect": 1478,
      "Ġdid": 1479,
      "ember": 1480,
      "uture": 1481,
      "ey": 1482,
      "Ġagainst": 1483,
      "ological": 1484,
      "orn": 1485,
      "Ġseveral": 1486,
      "Ġday": 1487,
      "20": 1488,
      "Ġnow": 1489,
      "Ġprin": 1490,
      "Ġmulti": 1491,
      "Ġindust": 1492,
      "tional": 1493,
      "omen": 1494,
      "Ġold": 1495,
      "Ġrespons": 1496,
      "Ġmethod": 1497,
      "Step": 1498,
      "Ġopen": 1499,
      "Ġtop": 1500,
      "yn": 1501,
      "Ġessential": 1502,
      "Ġknown": 1503,
      "Ġbra": 1504,
      "oot": 1505,
      "put": 1506,
      "outh": 1507,
      "Ġinterest": 1508,
      "aj": 1509,
      "Ġrest": 1510,
      "Ġrelationship": 1511,
      "Ġmo": 1512,
      "Ġdiscuss": 1513,
      "bs": 1514,
      "Ġchang": 1515,
      "me": 1516,
      "ĊĠĠ": 1517,
      "Ġide": 1518,
      "Ġplace": 1519,
      "Ġteam": 1520,
      "Ġcase": 1521,
      "Ġgre": 1522,
      "Ġphys": 1523,
      "ced": 1524,
      "ledge": 1525,
      "This": 1526,
      "ĠPl": 1527,
      "Ġlearning": 1528,
      "Ġsug": 1529,
      "Ġdesc": 1530,
      "Ġfost": 1531,
      "ĠCl": 1532,
      "Ġtreat": 1533,
      "Ġimpact": 1534,
      "Ġintern": 1535,
      "ull": 1536,
      "Ġbetter": 1537,
      "rent": 1538,
      "An": 1539,
      "riend": 1540,
      "Ġter": 1541,
      "port": 1542,
      "Ġact": 1543,
      "conom": 1544,
      "Ġve": 1545,
      "ee": 1546,
      "iques": 1547,
      "Ġ.": 1548,
      "Ġelect": 1549,
      "Ġpo": 1550,
      "Ġconst": 1551,
      "atic": 1552,
      "Ġbody": 1553,
      "Ġassoci": 1554,
      "Ġreduc": 1555,
      "Ġsentence": 1556,
      "rap": 1557,
      "Ġunique": 1558,
      "Ġparticular": 1559,
      "ilar": 1560,
      "iting": 1561,
      "Ġcolle": 1562,
      "pos": 1563,
      "Ġanother": 1564,
      "ape": 1565,
      "Ġbecome": 1566,
      "Ġbro": 1567,
      "Ġret": 1568,
      "ĠBut": 1569,
      "Ġdon": 1570,
      "000": 1571,
      "ored": 1572,
      "ann": 1573,
      "Ġstart": 1574,
      "duce": 1575,
      "Ġmeas": 1576,
      "Ġstruc": 1577,
      "ols": 1578,
      "Ġlocal": 1579,
      "iod": 1580,
      "Ġhome": 1581,
      "nov": 1582,
      "ĠComm": 1583,
      "de": 1584,
      "ives": 1585,
      "Ġnumber": 1586,
      "Ġdri": 1587,
      "Ġinflu": 1588,
      "Ġenergy": 1589,
      "ults": 1590,
      "Ġcoll": 1591,
      "Ġtem": 1592,
      "Ġlaw": 1593,
      "omes": 1594,
      "ĠAmerican": 1595,
      "Ġpati": 1596,
      "Ġet": 1597,
      "Ġlight": 1598,
      "Ġstrategies": 1599,
      "ton": 1600,
      "ium": 1601,
      "Ġcontrol": 1602,
      "atures": 1603,
      "Ġcreate": 1604,
      "Ġsystems": 1605,
      "az": 1606,
      "ysis": 1607,
      "Ġright": 1608,
      "ĠAt": 1609,
      "ck": 1610,
      "Ġlangu": 1611,
      "Ġmar": 1612,
      "nderstand": 1613,
      "resent": 1614,
      "br": 1615,
      "Ġspe": 1616,
      "ĠThere": 1617,
      "omm": 1618,
      "Ġ7": 1619,
      "ending": 1620,
      "Ġnecess": 1621,
      "Ġlarge": 1622,
      "orth": 1623,
      "hers": 1624,
      "ote": 1625,
      "ying": 1626,
      "Ġdev": 1627,
      "Ġcomplete": 1628,
      "Ġconsum": 1629,
      "ames": 1630,
      "Ġtowards": 1631,
      "Ġlim": 1632,
      ",\"": 1633,
      "Ġcost": 1634,
      "Ġpoli": 1635,
      "hor": 1636,
      "ilit": 1637,
      "Ġgive": 1638,
      "Ġaddress": 1639,
      "ĠAnd": 1640,
      "Ġalong": 1641,
      "Ġcruc": 1642,
      "oid": 1643,
      "Ġcaus": 1644,
      ".âĢĿ": 1645,
      "atural": 1646,
      "orld": 1647,
      "hether": 1648,
      "Ġiniti": 1649,
      "Ġ10": 1650,
      "ats": 1651,
      "Ġeas": 1652,
      "Ġoverall": 1653,
      "ĠWith": 1654,
      "Ġchange": 1655,
      "Ġcalled": 1656,
      "Ġcell": 1657,
      "ditions": 1658,
      "Ġtechnology": 1659,
      "Ġfurther": 1660,
      "Ġinteg": 1661,
      "Ġlist": 1662,
      "Ġdig": 1663,
      "idence": 1664,
      "Ġprofession": 1665,
      "ĠEm": 1666,
      "olution": 1667,
      "ĠTo": 1668,
      "Ġpolic": 1669,
      "ĠWhen": 1670,
      "Ġbelie": 1671,
      "rim": 1672,
      "ĠTitle": 1673,
      "ĠPh": 1674,
      "Ġemploy": 1675,
      "--------": 1676,
      "Ġpractices": 1677,
      "ĠIs": 1678,
      "Ġcharacter": 1679,
      "Ġavail": 1680,
      "Ġfamily": 1681,
      "ane": 1682,
      "ank": 1683,
      "Ġmove": 1684,
      "Ġcrucial": 1685,
      "ident": 1686,
      "Ġarea": 1687,
      "Ġindividuals": 1688,
      "ource": 1689,
      "Ġfuture": 1690,
      "Ġdise": 1691,
      "Ġmov": 1692,
      "Ġreview": 1693,
      "Ġstill": 1694,
      "Ġgreat": 1695,
      "Ġalways": 1696,
      "Ġfunction": 1697,
      "Ġprim": 1698,
      "Ġorig": 1699,
      "ĠTr": 1700,
      "irc": 1701,
      "Ġtest": 1702,
      "Ġfeel": 1703,
      "Ġpat": 1704,
      "Ġregard": 1705,
      "Ġcri": 1706,
      "ires": 1707,
      "cent": 1708,
      "Ġel": 1709,
      "Ġartic": 1710,
      "side": 1711,
      "Ġwant": 1712,
      "Ġknowledge": 1713,
      "ict": 1714,
      "anced": 1715,
      "Ġskills": 1716,
      "plic": 1717,
      "Ġ8": 1718,
      "Ġestab": 1719,
      "eral": 1720,
      "Ġeducation": 1721,
      "Ġspecific": 1722,
      "aces": 1723,
      "ĠApp": 1724,
      "self": 1725,
      "atform": 1726,
      "Ġsteps": 1727,
      "man": 1728,
      "Ġpositive": 1729,
      "ĠYour": 1730,
      "ĠSo": 1731,
      "Ġdoc": 1732,
      "ĠUs": 1733,
      "Ġcomb": 1734,
      "||": 1735,
      "Ġtravel": 1736,
      "fact": 1737,
      "As": 1738,
      "Ġeconom": 1739,
      "Ġresources": 1740,
      "ators": 1741,
      "ik": 1742,
      "ression": 1743,
      "app": 1744,
      "Ġthroughout": 1745,
      "ney": 1746,
      "Ġsym": 1747,
      "Ġearly": 1748,
      "Ġothers": 1749,
      "Ġimprove": 1750,
      "gest": 1751,
      "ute": 1752,
      "Ġcomplex": 1753,
      "Ġcommunity": 1754,
      "alu": 1755,
      "pects": 1756,
      "Ġneg": 1757,
      "Ġdra": 1758,
      "Ġself": 1759,
      "Ġspecial": 1760,
      "lement": 1761,
      "ived": 1762,
      "aster": 1763,
      "ream": 1764,
      "Ġsecond": 1765,
      "ret": 1766,
      "Ġtoday": 1767,
      "Ġmaking": 1768,
      "Ġprogram": 1769,
      "onst": 1770,
      "ancing": 1771,
      "oms": 1772,
      "ze": 1773,
      "jects": 1774,
      "ission": 1775,
      "Ġneeds": 1776,
      "ĠCons": 1777,
      "aring": 1778,
      "Ġfa": 1779,
      "Ġchallenges": 1780,
      "ĠUnit": 1781,
      "Ġareas": 1782,
      "Ġissues": 1783,
      "Ġview": 1784,
      "Ġmanagement": 1785,
      "Ġtext": 1786,
      "ext": 1787,
      "Ġtechniques": 1788,
      "Ġlast": 1789,
      "Ġinnov": 1790,
      "Ġpain": 1791,
      "chie": 1792,
      "Ġpost": 1793,
      "lying": 1794,
      "be": 1795,
      "Ġkeep": 1796,
      "Ġstory": 1797,
      "Ġwhy": 1798,
      "Ġseem": 1799,
      "Ġcompon": 1800,
      "ones": 1801,
      "ĠStud": 1802,
      "Ġgr": 1803,
      "Ġhistory": 1804,
      "Ġfactors": 1805,
      "Ġgroup": 1806,
      "Ġbeg": 1807,
      "ides": 1808,
      "Ġnear": 1809,
      "nces": 1810,
      "iver": 1811,
      "Ġreport": 1812,
      "Ġsom": 1813,
      "ables": 1814,
      "ĠUnited": 1815,
      "Ġlook": 1816,
      "Ġ9": 1817,
      "sts": 1818,
      "urity": 1819,
      "for": 1820,
      "Ġwar": 1821,
      "Ġhig": 1822,
      "Ġfew": 1823,
      "ired": 1824,
      "Ġname": 1825,
      "nderstanding": 1826,
      "Ġlevels": 1827,
      "Ġemb": 1828,
      "Ġtal": 1829,
      "Ġ199": 1830,
      "Ġopportunities": 1831,
      "Ġrece": 1832,
      "Ġsince": 1833,
      "Ġmusic": 1834,
      "elling": 1835,
      "ership": 1836,
      "ĠMan": 1837,
      "Ġquality": 1838,
      "Ġinvest": 1839,
      "ene": 1840,
      "ters": 1841,
      "illion": 1842,
      "Ġperformance": 1843,
      "Ġstrong": 1844,
      "ajor": 1845,
      "Ġnon": 1846,
      "lished": 1847,
      "Ġpossible": 1848,
      "Ġservices": 1849,
      "ĠCourse": 1850,
      "etw": 1851,
      "Ġemp": 1852,
      "Ġoffer": 1853,
      "Ġgovernment": 1854,
      "ĠWhat": 1855,
      "obal": 1856,
      "ended": 1857,
      "urop": 1858,
      "Ġassociated": 1859,
      "Ġhapp": 1860,
      "Ġpress": 1861,
      "ĠOr": 1862,
      "osp": 1863,
      "Ġjour": 1864,
      "ili": 1865,
      "Ġlanguage": 1866,
      "To": 1867,
      "Ġperiod": 1868,
      "ooking": 1869,
      "Ġanim": 1870,
      "Ġuser": 1871,
      "Ġcurrent": 1872,
      "Ġhead": 1873,
      "Ġair": 1874,
      "ĠOn": 1875,
      "gth": 1876,
      "Con": 1877,
      "ina": 1878,
      "Ġdeep": 1879,
      "action": 1880,
      "10": 1881,
      "atch": 1882,
      "Ġavailable": 1883,
      "ufact": 1884,
      "Ġtri": 1885,
      "Ġachie": 1886,
      "Ġill": 1887,
      "Ġfre": 1888,
      "Ġcertain": 1889,
      "Ġ,": 1890,
      "ĠAc": 1891,
      "Ġmeans": 1892,
      "ring": 1893,
      "Ġplatform": 1894,
      "Ġgain": 1895,
      "arc": 1896,
      "ots": 1897,
      "Ġbehav": 1898,
      "Ġrisk": 1899,
      "Ġrun": 1900,
      "Ġcountry": 1901,
      "ially": 1902,
      "Ġsay": 1903,
      "ware": 1904,
      "cep": 1905,
      "isc": 1906,
      "ĠOne": 1907,
      "Ġensure": 1908,
      "iec": 1909,
      "ĠSe": 1910,
      "Ġtimes": 1911,
      "of": 1912,
      "elves": 1913,
      "Ġeffici": 1914,
      "Ġprovided": 1915,
      "Ġaud": 1916,
      "Ġclear": 1917,
      "atory": 1918,
      "Ġfive": 1919,
      "Ġcontinu": 1920,
      "Ġdeterm": 1921,
      "Ġvalue": 1922,
      "Ġhere": 1923,
      "Ġconsist": 1924,
      "Ġsing": 1925,
      "Ġgoal": 1926,
      "Ġ=": 1927,
      "Ġnatural": 1928,
      "ĠZ": 1929,
      "ruction": 1930,
      "Ġsoci": 1931,
      "ox": 1932,
      "inc": 1933,
      "Ġexist": 1934,
      "erson": 1935,
      "ĠCol": 1936,
      "Ġemo": 1937,
      "istic": 1938,
      "ections": 1939,
      "ĠBe": 1940,
      "Ġconditions": 1941,
      "tig": 1942,
      "sy": 1943,
      "Ġcome": 1944,
      "Ġonline": 1945,
      "ours": 1946,
      "ator": 1947,
      "min": 1948,
      "Ġfore": 1949,
      "Ġlow": 1950,
      "Ġexplore": 1951,
      "iverse": 1952,
      "Ġparticip": 1953,
      "rect": 1954,
      "Ġsimilar": 1955,
      "urope": 1956,
      "aches": 1957,
      "Ġmodern": 1958,
      "ids": 1959,
      "Ġconcern": 1960,
      "Ġsitu": 1961,
      "Ġproduct": 1962,
      "gether": 1963,
      "Ġtogether": 1964,
      "avig": 1965,
      "ustain": 1966,
      "Ġrepresent": 1967,
      "Ġrecogn": 1968,
      "urs": 1969,
      "Ġcontent": 1970,
      "vant": 1971,
      "Ġvers": 1972,
      "Ġbenefits": 1973,
      "Ġmeaning": 1974,
      "Ġfriend": 1975,
      "Ġarti": 1976,
      "Ġappear": 1977,
      "Ġanaly": 1978,
      "Ġcollabor": 1979,
      "Ġwhether": 1980,
      "ĠDes": 1981,
      "tivity": 1982,
      "Ġwomen": 1983,
      "Ġaim": 1984,
      "orical": 1985,
      "ething": 1986,
      "sequ": 1987,
      "Ġexperiences": 1988,
      "Ġelements": 1989,
      "Ġapproach": 1990,
      "orpor": 1991,
      "ush": 1992,
      "Ġpopular": 1993,
      "Ġland": 1994,
      "Ġvari": 1995,
      "Ġmajor": 1996,
      "Ġsw": 1997,
      "Ġjus": 1998,
      "aps": 1999,
      "Ġsens": 2000,
      "Ġsal": 2001,
      "Ġaspects": 2002,
      "atives": 2003,
      "Ġbas": 2004,
      "Ġnext": 2005,
      "aling": 2006,
      "cer": 2007,
      "Ġfree": 2008,
      "agn": 2009,
      "though": 2010,
      "Ġindustry": 2011,
      "Ġtar": 2012,
      "Ġprovides": 2013,
      "ĠCont": 2014,
      "ctions": 2015,
      "Ġcommunication": 2016,
      "osed": 2017,
      "Ġoffers": 2018,
      "Ġinsights": 2019,
      "Ġcomput": 2020,
      "Ġdescrib": 2021,
      ",âĢĿ": 2022,
      "ĠBl": 2023,
      "ng": 2024,
      "Ġshort": 2025,
      "Ġrecord": 2026,
      "ĠGod": 2027,
      "Ġorganiz": 2028,
      "ged": 2029,
      "eti": 2030,
      "aren": 2031,
      "Ġage": 2032,
      "ole": 2033,
      "ĠUniversity": 2034,
      "acks": 2035,
      "Ġbi": 2036,
      "ĠStates": 2037,
      "Ġproducts": 2038,
      "Ġfour": 2039,
      "Ġfaith": 2040,
      "Ġsum": 2041,
      "Ġlo": 2042,
      "af": 2043,
      "IV": 2044,
      "Ġworks": 2045,
      "ecting": 2046,
      "Ġtraditional": 2047,
      "Ġart": 2048,
      "sc": 2049,
      "What": 2050,
      "Ġarticle": 2051,
      "ĠEurope": 2052,
      "Ġpast": 2053,
      "Ġvol": 2054,
      "onstr": 2055,
      "Ġremain": 2056,
      "hens": 2057,
      "oph": 2058,
      "Ġmultiple": 2059,
      "Ġoptim": 2060,
      "Ġencoura": 2061,
      "Ġer": 2062,
      "ek": 2063,
      "Ġdetailed": 2064,
      "Ġsomething": 2065,
      "Ġguid": 2066,
      "Ġauthor": 2067,
      "Ġcal": 2068,
      "Ġmind": 2069,
      "Ġtools": 2070,
      "idd": 2071,
      "rin": 2072,
      "ope": 2073,
      "Ġcity": 2074,
      "Ġorder": 2075,
      "Ġhard": 2076,
      "ancial": 2077,
      "ohn": 2078,
      "ird": 2079,
      "Ġproviding": 2080,
      "ĠMore": 2081,
      "Ġsci": 2082,
      "nds": 2083,
      "ĠThrough": 2084,
      "Ġincreasing": 2085,
      "Ġphysical": 2086,
      "ening": 2087,
      "Ġemerg": 2088,
      "Ġactivities": 2089,
      "aper": 2090,
      "Ġensuring": 2091,
      "Ġupon": 2092,
      "Ġpriv": 2093,
      "go": 2094,
      "Ġcirc": 2095,
      "Ġwords": 2096,
      "Ġregion": 2097,
      "Ġfund": 2098,
      "Ġworking": 2099,
      "light": 2100,
      "fer": 2101,
      "Ġvir": 2102,
      "iring": 2103,
      "Ġbuilding": 2104,
      "Ġturn": 2105,
      "rams": 2106,
      "Ġproblem": 2107,
      "ĠFr": 2108,
      "Ġdigital": 2109,
      "Ġuntil": 2110,
      "ĠTra": 2111,
      "Ġthings": 2112,
      "Ġresults": 2113,
      "Ġmembers": 2114,
      "Ġblood": 2115,
      "Ġexce": 2116,
      "Ġcreating": 2117,
      "Ġimplement": 2118,
      "eting": 2119,
      "Ġindic": 2120,
      "Ġoptions": 2121,
      "Ġbal": 2122,
      "ĠRec": 2123,
      "Ġcommit": 2124,
      "Ġproduction": 2125,
      "erous": 2126,
      "Ġstren": 2127,
      "Ġminim": 2128,
      "lection": 2129,
      "ulations": 2130,
      "Ġallows": 2131,
      "ĠAss": 2132,
      "Ġmaterials": 2133,
      "reci": 2134,
      "echan": 2135,
      "ĠAm": 2136,
      "Ġmarketing": 2137,
      "ĠĊĠĠ": 2138,
      "ditionally": 2139,
      "Ġsetting": 2140,
      "Ġhigher": 2141,
      "âĢĵ": 2142,
      "ĠDevelop": 2143,
      "une": 2144,
      "ĠEnglish": 2145,
      "inary": 2146,
      "ably": 2147,
      "ĠâĢĺ": 2148,
      "aching": 2149,
      "ĠIntroduction": 2150,
      "Ġcra": 2151,
      "ma": 2152,
      "Ġdisease": 2153,
      "Ġpoint": 2154,
      "ĠMed": 2155,
      "Ġdemonstr": 2156,
      "It": 2157,
      "Ġchanges": 2158,
      "Ġmanufact": 2159,
      "Ġaccording": 2160,
      "Ġnecessary": 2161,
      "Ġnetw": 2162,
      "Ġoffic": 2163,
      "ĠComp": 2164,
      "Ġadap": 2165,
      "Ã©": 2166,
      "gen": 2167,
      "Ġregarding": 2168,
      "Ġlands": 2169,
      "isions": 2170,
      "ĠAll": 2171,
      "face": 2172,
      "ĠUnderstanding": 2173,
      "Ġimportance": 2174,
      "Ġevents": 2175,
      "not": 2176,
      "Ġ[": 2177,
      "Ġtypes": 2178,
      "Ġcomponents": 2179,
      "Ġleading": 2180,
      "Ġasp": 2181,
      "...": 2182,
      "Ġmonth": 2183,
      "Ġfar": 2184,
      "Ġsty": 2185,
      "ery": 2186,
      "ument": 2187,
      "Ġmethods": 2188,
      "fort": 2189,
      "Ġsafety": 2190,
      "Ġlater": 2191,
      "Ġinstance": 2192,
      "Ġtype": 2193,
      "Ġtreatment": 2194,
      "Int": 2195,
      "Ġrather": 2196,
      "ooks": 2197,
      "Ġanalysis": 2198,
      "Ġquestions": 2199,
      "Ġ15": 2200,
      "Ġever": 2201,
      "Ġ$": 2202,
      "ĠChris": 2203,
      "Ġevent": 2204,
      "ised": 2205,
      "tention": 2206,
      "ites": 2207,
      "Ġpiec": 2208,
      "Ġperforming": 2209,
      "Ġmedia": 2210,
      "Ġglobal": 2211,
      "ĠSome": 2212,
      "ground": 2213,
      "aim": 2214,
      "ode": 2215,
      "Ġdam": 2216,
      "Ġprevent": 2217,
      "Ġsuccessful": 2218,
      "ient": 2219,
      "Ġscienti": 2220,
      "Ġsustain": 2221,
      "ients": 2222,
      "pro": 2223,
      "cle": 2224,
      "Ġhold": 2225,
      "ĠAf": 2226,
      "Ġidentify": 2227,
      "Ġincreased": 2228,
      "Ġsignificantly": 2229,
      "Ġline": 2230,
      "ump": 2231,
      "ĠLe": 2232,
      "Ġcultural": 2233,
      "oman": 2234,
      "hold": 2235,
      "Ġable": 2236,
      "ĠĊĠĠĊ": 2237,
      "Ġmakes": 2238,
      "Ġaway": 2239,
      "Ġcause": 2240,
      "Ġput": 2241,
      "ĠCan": 2242,
      "oney": 2243,
      "ĠCent": 2244,
      "Ġbey": 2245,
      "ropri": 2246,
      "Ġcontain": 2247,
      "Ġbeyond": 2248,
      "Ġthought": 2249,
      "Ġsurround": 2250,
      "tify": 2251,
      "Ġobs": 2252,
      "Ġfeatures": 2253,
      "ips": 2254,
      "Ġbook": 2255,
      "ĠOver": 2256,
      "Ġproject": 2257,
      "ising": 2258,
      "ray": 2259,
      "ipp": 2260,
      "Ġenti": 2261,
      "ming": 2262,
      "Ġfield": 2263,
      "aries": 2264,
      "Ġincorpor": 2265,
      "ores": 2266,
      "Ġwr": 2267,
      "Ġpromot": 2268,
      "'re": 2269,
      "Ġhaving": 2270,
      "ensive": 2271,
      "Ġpay": 2272,
      "ciples": 2273,
      "ules": 2274,
      "Ġappreci": 2275,
      "Ġterm": 2276,
      "Ġpattern": 2277,
      "Ġgame": 2278,
      "Ġcut": 2279,
      "Ġplant": 2280,
      "Ġdiverse": 2281,
      "Ġnar": 2282,
      "yd": 2283,
      "ĠAnal": 2284,
      "let": 2285,
      "ither": 2286,
      "ball": 2287,
      "use": 2288,
      "Ġgenerate": 2289,
      "Ġheart": 2290,
      "Ġprocesses": 2291,
      "Ġbroad": 2292,
      "ĠShe": 2293,
      "Ġtransl": 2294,
      "Ġutil": 2295,
      "Ġabove": 2296,
      "Ġcontext": 2297,
      "Ġusers": 2298,
      "ĠPre": 2299,
      "ele": 2300,
      "ler": 2301,
      "Ġsound": 2302,
      "tian": 2303,
      "enn": 2304,
      "Ġlay": 2305,
      "Ġspecies": 2306,
      "ĠGu": 2307,
      "Ġrelationships": 2308,
      "Ġlittle": 2309,
      "Ġpolitical": 2310,
      "icro": 2311,
      "illed": 2312,
      "time": 2313,
      "\".": 2314,
      "sych": 2315,
      "pecially": 2316,
      "Ġmention": 2317,
      "Ġspace": 2318,
      "ĠJohn": 2319,
      "Ġservice": 2320,
      "ends": 2321,
      "Ġnature": 2322,
      "Ġtemper": 2323,
      "lex": 2324,
      "ĠExam": 2325,
      "ows": 2326,
      "rug": 2327,
      "Ġstudies": 2328,
      "phas": 2329,
      "oint": 2330,
      "ĠReg": 2331,
      "Ġbegin": 2332,
      "Ġrad": 2333,
      "ĠRep": 2334,
      "Ġcorrect": 2335,
      "Ġrequires": 2336,
      "pective": 2337,
      "care": 2338,
      "term": 2339,
      "Ġyet": 2340,
      "Ġz": 2341,
      "Ġcomes": 2342,
      "ĠEar": 2343,
      "more": 2344,
      "âĢľ": 2345,
      "edi": 2346,
      "Ġclose": 2347,
      "ĠLet": 2348,
      "Ġdeath": 2349,
      "eed": 2350,
      "osing": 2351,
      "Ġsoft": 2352,
      "Ġtransform": 2353,
      "pite": 2354,
      "Ġanti": 2355,
      "__": 2356,
      "Ġfinancial": 2357,
      "Ġfull": 2358,
      "ches": 2359,
      "Ġcompany": 2360,
      "Ġintegr": 2361,
      "Ġdesigned": 2362,
      "ĠTechn": 2363,
      "Ġways": 2364,
      "Ġdecision": 2365,
      "ologies": 2366,
      "sp": 2367,
      "ley": 2368,
      "aken": 2369,
      "ĠPar": 2370,
      "Ġsays": 2371,
      "ĠAfter": 2372,
      "Ġcy": 2373,
      "Ġleft": 2374,
      "Ġground": 2375,
      "ĠNational": 2376,
      "rehens": 2377,
      "ok": 2378,
      "Ġspecif": 2379,
      "Ġey": 2380,
      "ĠPol": 2381,
      "asc": 2382,
      "Ġrecent": 2383,
      "Ġ12": 2384,
      "orks": 2385,
      "Ġreturn": 2386,
      "Ġyoung": 2387,
      "Ġpred": 2388,
      "Ġfoot": 2389,
      "aves": 2390,
      "urb": 2391,
      "avor": 2392,
      "Ġnegative": 2393,
      "onse": 2394,
      "plications": 2395,
      "ĠMar": 2396,
      "Ġapplications": 2397,
      "Ġinsp": 2398,
      "Ġcontribute": 2399,
      "Ġmaintaining": 2400,
      "Ġefforts": 2401,
      "ĠUS": 2402,
      "III": 2403,
      "Ġaction": 2404,
      "Ġassess": 2405,
      "Ġpractice": 2406,
      "ĠWorld": 2407,
      "Ġlikely": 2408,
      "Ġrelated": 2409,
      "Ġpercent": 2410,
      "mselves": 2411,
      "cy": 2412,
      "à¤": 2413,
      "ule": 2414,
      "ĠCar": 2415,
      "ĠPer": 2416,
      "Ġmedical": 2417,
      "Ġcoun": 2418,
      "Ġvalu": 2419,
      "Ġ17": 2420,
      "Ġthemselves": 2421,
      "How": 2422,
      "Ġvide": 2423,
      "Ġmechan": 2424,
      "Ġphot": 2425,
      "step": 2426,
      "ises": 2427,
      "Ġability": 2428,
      "Ġvisual": 2429,
      "timately": 2430,
      "Ġinternational": 2431,
      "Ġlandsc": 2432,
      "ung": 2433,
      "Ġcamp": 2434,
      "ynam": 2435,
      "iol": 2436,
      "ilt": 2437,
      "mit": 2438,
      "Ġaltern": 2439,
      "Ġeffects": 2440,
      "irit": 2441,
      "inition": 2442,
      "elines": 2443,
      "Ġinvolved": 2444,
      "ferences": 2445,
      "Ġjob": 2446,
      "Ġorganizations": 2447,
      "Ġdeb": 2448,
      "Ġbusinesses": 2449,
      "Ġaccount": 2450,
      "zing": 2451,
      "Ġespecially": 2452,
      "ians": 2453,
      "ĠEv": 2454,
      "Ġhowever": 2455,
      "joy": 2456,
      "Ġside": 2457,
      "ĠHealth": 2458,
      "ibr": 2459,
      "utri": 2460,
      "Ġgroups": 2461,
      "Ġword": 2462,
      "Ġproblems": 2463,
      "Ġmillion": 2464,
      "Ġincrease": 2465,
      "Ġhelps": 2466,
      "Ġclim": 2467,
      "denti": 2468,
      "Ġdays": 2469,
      "Ġtarget": 2470,
      "Ġpopulation": 2471,
      "Ġculture": 2472,
      "ĠExpl": 2473,
      "reme": 2474,
      "ĠAcc": 2475,
      "Ġevalu": 2476,
      "tt": 2477,
      "earch": 2478,
      "roll": 2479,
      "Ġann": 2480,
      "ĠHist": 2481,
      "Ġhouse": 2482,
      "Ġmental": 2483,
      "Ġcompan": 2484,
      "Ġcommunities": 2485,
      "Ġprinciples": 2486,
      "actions": 2487,
      "ios": 2488,
      "Ġri": 2489,
      "Ġfostering": 2490,
      "Introduction": 2491,
      "18": 2492,
      "ĠIntern": 2493,
      "Ġtrue": 2494,
      "Ġenough": 2495,
      "Ġbar": 2496,
      "Ġsecurity": 2497,
      "oration": 2498,
      "ĠStr": 2499,
      "Ġaccur": 2500,
      "aged": 2501,
      "Ġsingle": 2502,
      "Ġnever": 2503,
      "Ġtherap": 2504,
      "Ġlower": 2505,
      "Ġsearch": 2506,
      "Ġappropri": 2507,
      "Ġparticularly": 2508,
      "Ġdiffic": 2509,
      "Ġcountries": 2510,
      "Ġstri": 2511,
      "We": 2512,
      "augh": 2513,
      "based": 2514,
      "Ġstructure": 2515,
      "Ġ**": 2516,
      "epend": 2517,
      "Ġfilm": 2518,
      "ĠSu": 2519,
      "Ġquick": 2520,
      "Ġstay": 2521,
      "ison": 2522,
      "Ġred": 2523,
      "ĠâĢĶ": 2524,
      "Ġoccur": 2525,
      "Ġexc": 2526,
      "Ġfeed": 2527,
      "Ġcul": 2528,
      "Ġprograms": 2529,
      "porary": 2530,
      "Ġvalues": 2531,
      "Ġevidence": 2532,
      "Ġprec": 2533,
      "ĠDef": 2534,
      "Ġstates": 2535,
      "thing": 2536,
      "Ġinvolves": 2537,
      "Ġbehind": 2538,
      "ference": 2539,
      "istance": 2540,
      "Ġmess": 2541,
      "Ġterms": 2542,
      "Ġinj": 2543,
      "Ġrecomm": 2544,
      "ĠAfric": 2545,
      "Ġnavig": 2546,
      "Ġbat": 2547,
      "Ġregular": 2548,
      "ĠAdditionally": 2549,
      "12": 2550,
      "aced": 2551,
      "Conclusion": 2552,
      "Ġsuff": 2553,
      "Ġla": 2554,
      "Ġthin": 2555,
      "Ġshare": 2556,
      "Ġver": 2557,
      "Ġinstit": 2558,
      "reen": 2559,
      "hern": 2560,
      "alf": 2561,
      "ĠWar": 2562,
      "Ġposition": 2563,
      "Ġtraining": 2564,
      "Ġenjoy": 2565,
      "Ġbig": 2566,
      "Ġexerc": 2567,
      "Ġliving": 2568,
      "aff": 2569,
      "Ġharm": 2570,
      "vention": 2571,
      "Ġoutside": 2572,
      "iam": 2573,
      "ĠMark": 2574,
      "If": 2575,
      "Ġdest": 2576,
      "ĠMe": 2577,
      "Ġclean": 2578,
      "Ġcritical": 2579,
      "rast": 2580,
      "anation": 2581,
      "Ġcells": 2582,
      "When": 2583,
      "Ġpub": 2584,
      "Ġlive": 2585,
      "Ġparts": 2586,
      "Ġattention": 2587,
      "tal": 2588,
      "Ġloss": 2589,
      "Ġcentury": 2590,
      "Ġshap": 2591,
      "ww": 2592,
      "ests": 2593,
      "Ġplatforms": 2594,
      "lec": 2595,
      "ĠGerm": 2596,
      "Ġconduc": 2597,
      "Ġrange": 2598,
      "Ġwebs": 2599,
      "Ġ198": 2600,
      "Ġ0": 2601,
      "enced": 2602,
      "Ġrequired": 2603,
      "Ġtrust": 2604,
      "lecting": 2605,
      "Ġfail": 2606,
      "Ġlives": 2607,
      "uck": 2608,
      "Ġactive": 2609,
      "Ġnorm": 2610,
      "back": 2611,
      "Ġeffectively": 2612,
      "Ġge": 2613,
      "Ġenhance": 2614,
      "Ġenvironmental": 2615,
      "50": 2616,
      "Ġ16": 2617,
      "Ġbecomes": 2618,
      "Ġfrequ": 2619,
      "encies": 2620,
      "play": 2621,
      "Ġlove": 2622,
      "Ġconcept": 2623,
      "Ġremains": 2624,
      "iles": 2625,
      "Ġskin": 2626,
      "Ġteac": 2627,
      "hib": 2628,
      "Ġsubst": 2629,
      "ĠIns": 2630,
      "rain": 2631,
      "Ġestablish": 2632,
      "pr": 2633,
      "Ġavoid": 2634,
      "Ġeth": 2635,
      "Ġbehavior": 2636,
      "ĠCo": 2637,
      "times": 2638,
      "Ġpatients": 2639,
      "Ġengine": 2640,
      "Ġwriting": 2641,
      "Ġcover": 2642,
      "Ġprior": 2643,
      "Ġcases": 2644,
      "ĠUser": 2645,
      "arily": 2646,
      "Ġtail": 2647,
      "rad": 2648,
      "Ġtell": 2649,
      "way": 2650,
      "Ġoil": 2651,
      "Ġusually": 2652,
      "Ġrev": 2653,
      "ĠSec": 2654,
      "Ġgoing": 2655,
      "Ġarch": 2656,
      "Ġappe": 2657,
      "urch": 2658,
      "Ġallowing": 2659,
      "ĠMoreover": 2660,
      "Ġhistorical": 2661,
      "val": 2662,
      "minist": 2663,
      "ems": 2664,
      "nal": 2665,
      "Ġpoints": 2666,
      "Ġbir": 2667,
      "Ġrates": 2668,
      "Ġexpress": 2669,
      "Ġste": 2670,
      "rist": 2671,
      "Ġchem": 2672,
      "Ġcompeti": 2673,
      "Ġvia": 2674,
      "Ġul": 2675,
      "Ġeconomic": 2676,
      "lam": 2677,
      "Ġsense": 2678,
      "Ġresponse": 2679,
      "Ġwin": 2680,
      "wh": 2681,
      "uly": 2682,
      "ured": 2683,
      "Ġemphas": 2684,
      "ony": 2685,
      "Ch": 2686,
      "rel": 2687,
      "fied": 2688,
      "aving": 2689,
      "ĠSouth": 2690,
      "):": 2691,
      "Ġpath": 2692,
      "Ġabs": 2693,
      "ops": 2694,
      "Ġsimple": 2695,
      "lease": 2696,
      "ĠFurther": 2697,
      "Ġrelevant": 2698,
      "VI": 2699,
      "Ġreason": 2700,
      "Ġrights": 2701,
      "lo": 2702,
      "Ġyourself": 2703,
      "Ġengagement": 2704,
      "Ġconclusion": 2705,
      "Ġap": 2706,
      "Ġrelig": 2707,
      "ĠIdenti": 2708,
      "Ġdynam": 2709,
      "Ġaware": 2710,
      "most": 2711,
      "emic": 2712,
      "ai": 2713,
      "Ġcomprehens": 2714,
      "Ġentire": 2715,
      "know": 2716,
      "Ġforms": 2717,
      "Ġbecame": 2718,
      "Ġsuper": 2719,
      "ĠNorth": 2720,
      "Ġund": 2721,
      "Ġask": 2722,
      "Ġwind": 2723,
      "ritis": 2724,
      "Ġseen": 2725,
      "Ġconcerns": 2726,
      "ĠMon": 2727,
      "Ġdraw": 2728,
      "Ġonce": 2729,
      "ply": 2730,
      "Ġjustify": 2731,
      "ĠHis": 2732,
      "place": 2733,
      "pose": 2734,
      "Ġgeneral": 2735,
      "Ġbreak": 2736,
      "Ġfocusing": 2737,
      "Ġkind": 2738,
      "ously": 2739,
      "ude": 2740,
      "ĠPrac": 2741,
      "Ġetc": 2742,
      "Ġobserv": 2743,
      "Ġpaper": 2744,
      "izes": 2745,
      "Ġstress": 2746,
      "ĠNo": 2747,
      "Ġsolutions": 2748,
      "eration": 2749,
      "Ġnumerous": 2750,
      "Ġpressure": 2751,
      "Ġadditional": 2752,
      "Ġjourney": 2753,
      "ĠGe": 2754,
      "Ġseeking": 2755,
      "Ġconsid": 2756,
      "overed": 2757,
      "Ġexploring": 2758,
      "Ġprogress": 2759,
      "Ġnational": 2760,
      "Ġextract": 2761,
      "ĠCal": 2762,
      "aily": 2763,
      "ened": 2764,
      "Ġvaluable": 2765,
      "Ex": 2766,
      "ott": 2767,
      "ĠThat": 2768,
      "ese": 2769,
      "Ġautom": 2770,
      "Ġexplain": 2771,
      "Ġcompared": 2772,
      "11": 2773,
      "Ġcat": 2774,
      "Ġscience": 2775,
      "Ġcustomer": 2776,
      "Ġopp": 2777,
      "Ġfall": 2778,
      "ront": 2779,
      "Ġheav": 2780,
      "ĠAb": 2781,
      "Ġleast": 2782,
      "Ġmodel": 2783,
      "ĠGen": 2784,
      "Ġoriginal": 2785,
      "irm": 2786,
      "pid": 2787,
      "Ġmass": 2788,
      "ified": 2789,
      "asts": 2790,
      "ĠTrans": 2791,
      "Ġdirectly": 2792,
      "Ġsources": 2793,
      "Ġrou": 2794,
      "bon": 2795,
      "Ġing": 2796,
      "ĠĠĠĠ": 2797,
      "ĠChristian": 2798,
      "Ġactivity": 2799,
      "Ġprimary": 2800,
      "Ġachieve": 2801,
      "Ġarg": 2802,
      "isms": 2803,
      "Ġadj": 2804,
      "like": 2805,
      "\",": 2806,
      "Ġtaking": 2807,
      "ender": 2808,
      "Ġdrug": 2809,
      "ift": 2810,
      "Ġmom": 2811,
      "Ġserve": 2812,
      "Ġconvers": 2813,
      "Ġexpect": 2814,
      "aut": 2815,
      "Ġadvant": 2816,
      "Ġreduce": 2817,
      "entially": 2818,
      "Ġsepar": 2819,
      "Ġsure": 2820,
      "Ġitself": 2821,
      "Ġeither": 2822,
      "ify": 2823,
      "arents": 2824,
      "Ġlegal": 2825,
      "Ġliter": 2826,
      "ĠDec": 2827,
      "Ġadapt": 2828,
      "Ġsociety": 2829,
      "hood": 2830,
      "Ġcompanies": 2831,
      "bo": 2832,
      "Ġsurrounding": 2833,
      "abilities": 2834,
      "Ġapplication": 2835,
      "arent": 2836,
      "Ġappropriate": 2837,
      "ĠÐ": 2838,
      "ned": 2839,
      "Ġsize": 2840,
      "iction": 2841,
      "Ġtransport": 2842,
      "Ġprofessional": 2843,
      "Ġsurface": 2844,
      "ension": 2845,
      "Ġclaim": 2846,
      "Ġfaithfully": 2847,
      "Ġneeded": 2848,
      "ĠFl": 2849,
      "Ġmoney": 2850,
      "Ġvisit": 2851,
      "Ġgreater": 2852,
      "erve": 2853,
      "Ġpolicy": 2854,
      "iance": 2855,
      "cepts": 2856,
      "Ġdecisions": 2857,
      "Ġcolor": 2858,
      "Ġscen": 2859,
      "Ġmor": 2860,
      "sh": 2861,
      "uel": 2862,
      "Ġpartn": 2863,
      "comes": 2864,
      "ptoms": 2865,
      "Ġresponsible": 2866,
      "verage": 2867,
      "ĠAust": 2868,
      "ĠSim": 2869,
      "ĠFrom": 2870,
      "utes": 2871,
      "For": 2872,
      "ae": 2873,
      "Ġstruct": 2874,
      "Ġwide": 2875,
      "eter": 2876,
      "tor": 2877,
      "Ġcontinue": 2878,
      "Ġweek": 2879,
      "There": 2880,
      "Ġgene": 2881,
      "Ġsource": 2882,
      "acc": 2883,
      "Ġlab": 2884,
      "ready": 2885,
      "hic": 2886,
      "Ġflow": 2887,
      "Ġface": 2888,
      "Ġgoals": 2889,
      "Ġpatterns": 2890,
      "Ġcannot": 2891,
      "olving": 2892,
      "Ġcross": 2893,
      "Ġtaken": 2894,
      "ĠAmerica": 2895,
      "ĠAg": 2896,
      "ran": 2897,
      "Ġcomputer": 2898,
      "Ġmach": 2899,
      "Ġconven": 2900,
      "Ġresearc": 2901,
      "int": 2902,
      "Ġconsidered": 2903,
      "Ġreve": 2904,
      "Ġseason": 2905,
      "estig": 2906,
      "uild": 2907,
      "ĠMay": 2908,
      "Ġconnections": 2909,
      "Ġinstead": 2910,
      "Ġpromoting": 2911,
      "Ġsubject": 2912,
      "Ġlog": 2913,
      "Ġmeasures": 2914,
      "Ġdifficult": 2915,
      "ĠStrateg": 2916,
      "Ġprevious": 2917,
      "Ġplanning": 2918,
      "Ġinvestig": 2919,
      "Ġadop": 2920,
      "Ġcancer": 2921,
      "oes": 2922,
      "Ġthreat": 2923,
      "ivil": 2924,
      "dom": 2925,
      "ography": 2926,
      "pre": 2927,
      "Ġ14": 2928,
      "ĠPres": 2929,
      "emporary": 2930,
      "Ġsun": 2931,
      "Ġhyp": 2932,
      "Ġplants": 2933,
      "eds": 2934,
      "Ġded": 2935,
      "Ġec": 2936,
      "axim": 2937,
      "Ġones": 2938,
      "iment": 2939,
      "Ġi": 2940,
      "ĠX": 2941,
      "apan": 2942,
      "ersonal": 2943,
      "ĠInst": 2944,
      "overy": 2945,
      "ribution": 2946,
      "ev": 2947,
      "Ġreally": 2948,
      "Ġvideo": 2949,
      "ĠFin": 2950,
      "Ġrate": 2951,
      "Ġpsych": 2952,
      "inating": 2953,
      "reg": 2954,
      "ĠEduc": 2955,
      "Ġmentioned": 2956,
      "ample": 2957,
      "Ġinfluence": 2958,
      "Ġinformed": 2959,
      "Ġanswering": 2960,
      "ĠYork": 2961,
      "Ġful": 2962,
      "ĠCommun": 2963,
      "ales": 2964,
      "Ġbur": 2965,
      "hing": 2966,
      "vere": 2967,
      "Ġcred": 2968,
      "Ġ197": 2969,
      "30": 2970,
      "Ġsmo": 2971,
      "Ġ30": 2972,
      "Ġsafe": 2973,
      "Ġbrain": 2974,
      "//": 2975,
      "',": 2976,
      "hel": 2977,
      "Ġmonit": 2978,
      "Ġtypically": 2979,
      "my": 2980,
      "Ġdeveloping": 2981,
      "Ġalready": 2982,
      "ober": 2983,
      "Ġeffect": 2984,
      "ĠFurthermore": 2985,
      "ultural": 2986,
      "Ġfriends": 2987,
      "ronic": 2988,
      "Ġtrends": 2989,
      "su": 2990,
      "Ġweb": 2991,
      "yl": 2992,
      "Ġhealthcare": 2993,
      "Answer": 2994,
      "aign": 2995,
      "Ġextreme": 2996,
      "Ġexec": 2997,
      "Ġmeet": 2998,
      "Ġwhole": 2999,
      "Ġdiv": 3000,
      "Ġspirit": 3001,
      "acts": 3002,
      "Ġstudent": 3003,
      "astic": 3004,
      "Ġdeg": 3005,
      "Ġrefer": 3006,
      "Ġdeveloped": 3007,
      "ipment": 3008,
      "Ġspecifically": 3009,
      "ding": 3010,
      "Ġcosts": 3011,
      "Ġfacilit": 3012,
      "Ġnutri": 3013,
      "Ġwhite": 3014,
      "ert": 3015,
      "artment": 3016,
      "Ġwal": 3017,
      "ister": 3018,
      "Ġcreated": 3019,
      "Ġshared": 3020,
      "Ġsite": 3021,
      "Ġnarra": 3022,
      "ĠResearch": 3023,
      "Ġtour": 3024,
      "Ġviol": 3025,
      "Ġbelow": 3026,
      "mar": 3027,
      "Ġplays": 3028,
      "Ġcapital": 3029,
      "Ġsuggest": 3030,
      "Ġseries": 3031,
      "Ġoutcomes": 3032,
      "Ġsoftware": 3033,
      "15": 3034,
      "ils": 3035,
      "rown": 3036,
      "fect": 3037,
      "Ġfram": 3038,
      "ourt": 3039,
      "Ġfig": 3040,
      "NA": 3041,
      "Ġsy": 3042,
      "Ġamount": 3043,
      "Ġengage": 3044,
      "rs": 3045,
      "Ġlif": 3046,
      "Section": 3047,
      "oor": 3048,
      "Ġrich": 3049,
      "ĠOp": 3050,
      "ĠChar": 3051,
      "ĠMus": 3052,
      "Ġhealthy": 3053,
      "Ġcame": 3054,
      "Ġbalance": 3055,
      "atis": 3056,
      "Now": 3057,
      "itiz": 3058,
      "Ġrob": 3059,
      "Ġhelpful": 3060,
      "Ġlocation": 3061,
      "ulate": 3062,
      "racing": 3063,
      "Ġtax": 3064,
      "Ġrefers": 3065,
      "Ġprojects": 3066,
      "ees": 3067,
      "ustr": 3068,
      "ĠState": 3069,
      "ritish": 3070,
      "ror": 3071,
      "Ġdaily": 3072,
      "Ġrisks": 3073,
      "umb": 3074,
      "leep": 3075,
      "Ġstrength": 3076,
      "ĠCase": 3077,
      "Ġdog": 3078,
      "Ġtook": 3079,
      "eness": 3080,
      "hem": 3081,
      "Ġrequirements": 3082,
      "Ġmedic": 3083,
      "Ġlooking": 3084,
      "Ġprofessionals": 3085,
      "osure": 3086,
      "ishing": 3087,
      "ĠTim": 3088,
      "ume": 3089,
      "Ġweight": 3090,
      "Ġcr": 3091,
      "ugg": 3092,
      "estern": 3093,
      "Ġsomeone": 3094,
      "Ġhab": 3095,
      "Ġexplanation": 3096,
      "oday": 3097,
      "Ġeducational": 3098,
      "amed": 3099,
      "active": 3100,
      "Ġled": 3101,
      "'ll": 3102,
      "xim": 3103,
      "ĠĊ": 3104,
      "itation": 3105,
      "Ġsatis": 3106,
      "Ġalign": 3107,
      "Ġdoing": 3108,
      "ĠProv": 3109,
      "Ġvital": 3110,
      "ls": 3111,
      "Ġsymptoms": 3112,
      "Ġpowerful": 3113,
      "16": 3114,
      "iet": 3115,
      "itable": 3116,
      "ched": 3117,
      "Ġdoesn": 3118,
      "ĠServ": 3119,
      "ĠConsider": 3120,
      "mon": 3121,
      "Ġparents": 3122,
      "ĠJapan": 3123,
      "ades": 3124,
      "Ġvehic": 3125,
      "rig": 3126,
      "Ġclimate": 3127,
      "Ġhar": 3128,
      "Ġissue": 3129,
      "Ġgreen": 3130,
      "Ġincludes": 3131,
      "Ġconflic": 3132,
      "iliar": 3133,
      "Ġaspect": 3134,
      "Ġintric": 3135,
      "Ġidea": 3136,
      "tific": 3137,
      "Ġobj": 3138,
      "ĠDevelopment": 3139,
      "omin": 3140,
      "ĠDr": 3141,
      "Ġsus": 3142,
      "head": 3143,
      "order": 3144,
      "Ġlandscape": 3145,
      "Ġprem": 3146,
      "By": 3147,
      "Ġhours": 3148,
      "Ġdemand": 3149,
      "Ġindepend": 3150,
      "Ġproperty": 3151,
      "ĠTe": 3152,
      "Ġsimply": 3153,
      "Ġhalf": 3154,
      "Ġestablished": 3155,
      "Ġemotional": 3156,
      "Ġcollaboration": 3157,
      "Ġwa": 3158,
      "hesis": 3159,
      "Ġcateg": 3160,
      "Ġfire": 3161,
      "ried": 3162,
      "going": 3163,
      "mb": 3164,
      "Ġtechnologies": 3165,
      "ilitary": 3166,
      "Ġprob": 3167,
      "Ġpatient": 3168,
      "ĠMin": 3169,
      "Ġblack": 3170,
      "ification": 3171,
      "Ġsex": 3172,
      "ĠBritish": 3173,
      "ellow": 3174,
      "Ġupd": 3175,
      "Ġprep": 3176,
      "oming": 3177,
      "ER": 3178,
      "Ġsituation": 3179,
      "Ġattem": 3180,
      "ĠHar": 3181,
      "Ġsugges": 3182,
      "osis": 3183,
      "ĠIdentify": 3184,
      "Ġanimals": 3185,
      "anti": 3186,
      "Ġremember": 3187,
      "Ġstandards": 3188,
      "Ġ|": 3189,
      "Ġlot": 3190,
      "ĠCre": 3191,
      "Ġdetails": 3192,
      "Ġheat": 3193,
      "ĠMod": 3194,
      "Ġdr": 3195,
      "Ġproced": 3196,
      "ĠDep": 3197,
      "Ġ13": 3198,
      "Ġpolicies": 3199,
      "14": 3200,
      "ĠPe": 3201,
      "idents": 3202,
      "Ġshows": 3203,
      "Ġhor": 3204,
      "ĠThink": 3205,
      "Ġbegan": 3206,
      "Ġport": 3207,
      "Ġ196": 3208,
      "Ġcondition": 3209,
      "One": 3210,
      "Ġearl": 3211,
      "17": 3212,
      "istics": 3213,
      "ounts": 3214,
      "Ġbuilt": 3215,
      "Ġstat": 3216,
      "lected": 3217,
      "Ġdevices": 3218,
      "Ð¾": 3219,
      "illing": 3220,
      "Ġmaxim": 3221,
      "wide": 3222,
      "vey": 3223,
      "200": 3224,
      "rench": 3225,
      "ĠGl": 3226,
      "Ġdone": 3227,
      "Ġarts": 3228,
      "Ġcele": 3229,
      "Ġultimately": 3230,
      "Ġstra": 3231,
      "Ġmonths": 3232,
      "ĠChrist": 3233,
      "iddle": 3234,
      "Ġjoin": 3235,
      "pper": 3236,
      "First": 3237,
      "usive": 3238,
      "ffic": 3239,
      "Ġdamage": 3240,
      "Ġofficial": 3241,
      "ĠFe": 3242,
      "Ġfinal": 3243,
      "Ġmovement": 3244,
      "Ġproduce": 3245,
      "Ġcomprehensive": 3246,
      "Ġnight": 3247,
      "Ġresearchers": 3248,
      "://": 3249,
      "Ġmicro": 3250,
      "Ġbound": 3251,
      "Ġadminist": 3252,
      "ederal": 3253,
      "oles": 3254,
      "Ġprotection": 3255,
      "Ġstream": 3256,
      "Ġmatter": 3257,
      "Ġsignificance": 3258,
      "Ġwritten": 3259,
      "Ġbackground": 3260,
      "Ġenables": 3261,
      "Ġenhancing": 3262,
      "pping": 3263,
      "Ġsix": 3264,
      ".)": 3265,
      "Ġprote": 3266,
      "Ġhot": 3267,
      "Ġensures": 3268,
      "Ġflu": 3269,
      "amin": 3270,
      "bre": 3271,
      "Ġeasy": 3272,
      "Ġmis": 3273,
      "ĠConclusion": 3274,
      "cri": 3275,
      "pe": 3276,
      "Ġreducing": 3277,
      "Ġcampaign": 3278,
      "Ġimag": 3279,
      "ster": 3280,
      "ĠGo": 3281,
      "force": 3282,
      "Ġacqu": 3283,
      "fs": 3284,
      "ĠRuss": 3285,
      "Ġpack": 3286,
      "aur": 3287,
      "Ġempower": 3288,
      "Ġintroduc": 3289,
      "Ġtown": 3290,
      "ellig": 3291,
      "Ġaddition": 3292,
      "uestion": 3293,
      "Ġreading": 3294,
      "Ġstatement": 3295,
      "Ġmovie": 3296,
      "Ġorganization": 3297,
      "Ġconcepts": 3298,
      "Ġexisting": 3299,
      "Ġstar": 3300,
      "Ġlate": 3301,
      "Ġbase": 3302,
      "13": 3303,
      "Ġfit": 3304,
      "Ġthird": 3305,
      "Ġdiagn": 3306,
      "Ġexpand": 3307,
      "Ġingred": 3308,
      "ĠStudy": 3309,
      "Ġsometimes": 3310,
      "Ġinnovation": 3311,
      "med": 3312,
      "Ġmanufacturing": 3313,
      "Ġwarm": 3314,
      "ĠDis": 3315,
      "Ġlink": 3316,
      "ada": 3317,
      "Ġmeasure": 3318,
      "----------------": 3319,
      "odies": 3320,
      "oved": 3321,
      "Ġpurch": 3322,
      "Ġbrand": 3323,
      "Ġtemperature": 3324,
      "Ġcry": 3325,
      "ĠAccording": 3326,
      "fl": 3327,
      "Ġdetermine": 3328,
      "Ġincorporating": 3329,
      "Ġpropos": 3330,
      "ĠTw": 3331,
      "Ġbring": 3332,
      "ĠEnc": 3333,
      "Ġcareer": 3334,
      "Ġoperations": 3335,
      "osition": 3336,
      "Ġreach": 3337,
      "Ġcaused": 3338,
      "ength": 3339,
      "Ġgrowing": 3340,
      "ĠBar": 3341,
      "ĠSystem": 3342,
      "Ġcontact": 3343,
      "org": 3344,
      "Ġplayers": 3345,
      "eper": 3346,
      "Ġhost": 3347,
      "ĠKing": 3348,
      "ĠEarth": 3349,
      "Ġapproaches": 3350,
      "Ġmag": 3351,
      "making": 3352,
      "new": 3353,
      "ana": 3354,
      "Ġdocument": 3355,
      "hentic": 3356,
      "que": 3357,
      "Ġtotal": 3358,
      "Ġlonger": 3359,
      "Ġsil": 3360,
      "Ġstories": 3361,
      "Ġcontemporary": 3362,
      "Ġequipment": 3363,
      "Ġcraf": 3364,
      "Ġstandard": 3365,
      "acters": 3366,
      "ĠKey": 3367,
      "Ġunc": 3368,
      "So": 3369,
      "Ġchemical": 3370,
      "Ġaddressing": 3371,
      "Ġefficiency": 3372,
      "issions": 3373,
      "urg": 3374,
      "urance": 3375,
      "Ġcop": 3376,
      "Ġuses": 3377,
      "Ġqual": 3378,
      "Ġdiet": 3379,
      "ĠHigh": 3380,
      "iber": 3381,
      "ilies": 3382,
      "come": 3383,
      "Ġhighlight": 3384,
      "Ġchoice": 3385,
      "Ġdial": 3386,
      "ros": 3387,
      ":**": 3388,
      "Ġinvolve": 3389,
      "lear": 3390,
      "Ġimmedi": 3391,
      "Ġisn": 3392,
      "ĠSm": 3393,
      "Ġmother": 3394,
      "Ġquickly": 3395,
      "idge": 3396,
      "Ġengaging": 3397,
      "Ġschools": 3398,
      "Ġcomfort": 3399,
      "ervation": 3400,
      "Ġpros": 3401,
      "Ġthing": 3402,
      "equ": 3403,
      "Ġincreasingly": 3404,
      "udd": 3405,
      "Ġappl": 3406,
      "Ġthinking": 3407,
      "oud": 3408,
      "Ġdelve": 3409,
      "Ġinstall": 3410,
      "Ġcrim": 3411,
      "Ġideas": 3412,
      "Ġinnovative": 3413,
      "Ġnews": 3414,
      "ĠJew": 3415,
      "Ġgas": 3416,
      "ĠDesign": 3417,
      "Ġtakes": 3418,
      "Ġ--": 3419,
      "Ġcore": 3420,
      "But": 3421,
      "Ġtailored": 3422,
      "ĠEuropean": 3423,
      "encing": 3424,
      "Ġpublished": 3425,
      "Ðµ": 3426,
      "iable": 3427,
      "ilience": 3428,
      "Ġserves": 3429,
      "Ġstrategy": 3430,
      "Ġactions": 3431,
      "ructure": 3432,
      "ĠEd": 3433,
      "ĠSchool": 3434,
      "Ġforce": 3435,
      "Al": 3436,
      "Ġpiece": 3437,
      "Ġtou": 3438,
      "ĠCount": 3439,
      "Ġfru": 3440,
      "uries": 3441,
      "olic": 3442,
      "asons": 3443,
      "Ġcauses": 3444,
      "itect": 3445,
      "Ġenab": 3446,
      "ĠAustral": 3447,
      "room": 3448,
      "Ġfoster": 3449,
      "Ġconnection": 3450,
      "Ġnumbers": 3451,
      "Ġrapid": 3452,
      "Ġguidelines": 3453,
      "Ġadvance": 3454,
      "uilding": 3455,
      "Ġadjust": 3456,
      "Ġmodels": 3457,
      "ads": 3458,
      "uff": 3459,
      "AS": 3460,
      "ternal": 3461,
      "Ġactually": 3462,
      "ĠProg": 3463,
      "Ġsurv": 3464,
      "ields": 3465,
      "Ġproperties": 3466,
      "alls": 3467,
      "aceu": 3468,
      "Ġstyle": 3469,
      "resh": 3470,
      "ĠInternational": 3471,
      "Ġaccept": 3472,
      "Ġaccom": 3473,
      "Ġplans": 3474,
      "formation": 3475,
      "inct": 3476,
      "ĠIndia": 3477,
      "Ġprotect": 3478,
      "Ġopportunity": 3479,
      "armaceu": 3480,
      "Ġpurpose": 3481,
      "ĠEl": 3482,
      "Ġlocated": 3483,
      "acking": 3484,
      "Ġcustomers": 3485,
      "Ġrespect": 3486,
      "Ġlies": 3487,
      "cient": 3488,
      "icate": 3489,
      "Ġexamine": 3490,
      "Ġcheck": 3491,
      "ĠSpec": 3492,
      "Ġlarger": 3493,
      "att": 3494,
      "ĠWill": 3495,
      "efore": 3496,
      "Ġpoll": 3497,
      "ĠRem": 3498,
      "Ġimage": 3499,
      "tically": 3500,
      "Ġgames": 3501,
      "Ġhighly": 3502,
      "Ġtry": 3503,
      "Ġcentral": 3504,
      "Ġmob": 3505,
      "Ġwebsite": 3506,
      "Ġincl": 3507,
      "Ġpromote": 3508,
      "Ġroom": 3509,
      "Ġsymb": 3510,
      "Ġrig": 3511,
      "Ġchoices": 3512,
      "Ġessay": 3513,
      "ief": 3514,
      "ĠLear": 3515,
      "ingly": 3516,
      "atively": 3517,
      "Ġagree": 3518,
      "Ġfeature": 3519,
      "Ġimproved": 3520,
      "ĠÂ": 3521,
      "oon": 3522,
      "AR": 3523,
      "AT": 3524,
      "Ġstage": 3525,
      "ĠRel": 3526,
      "ival": 3527,
      "vity": 3528,
      "ĠInter": 3529,
      "ulated": 3530,
      "Ġstrategic": 3531,
      "Ġmilitary": 3532,
      "ibilities": 3533,
      "rial": 3534,
      "ĠTheir": 3535,
      "ament": 3536,
      "Ġcharacters": 3537,
      "lev": 3538,
      "Ġimplications": 3539,
      "Ġsleep": 3540,
      "Ġsong": 3541,
      "orough": 3542,
      "ching": 3543,
      "Ġthus": 3544,
      "ĠCO": 3545,
      "ux": 3546,
      "Ġspread": 3547,
      "ĠEducation": 3548,
      "Ġ11": 3549,
      "uth": 3550,
      "ĠCity": 3551,
      "While": 3552,
      "Ġorigin": 3553,
      "Ġalmost": 3554,
      "Ġlimited": 3555,
      "Ġdive": 3556,
      "life": 3557,
      "Ġsolid": 3558,
      "ĠToday": 3559,
      "ativity": 3560,
      "mary": 3561,
      "Ġperfect": 3562,
      "Ġnetwork": 3563,
      "Ġ100": 3564,
      "anging": 3565,
      "Ġfarm": 3566,
      "Ġalternative": 3567,
      "Ġreduced": 3568,
      "Ġinside": 3569,
      "Ġadvanced": 3570,
      "tise": 3571,
      "Ġjud": 3572,
      "orous": 3573,
      "Ġchann": 3574,
      "Ġbasic": 3575,
      "Ġcommitment": 3576,
      "orders": 3577,
      "ords": 3578,
      "ĠInc": 3579,
      "ectives": 3580,
      "Ġestim": 3581,
      "Ġpreferences": 3582,
      "Ġnovel": 3583,
      "akers": 3584,
      "Ġvirt": 3585,
      "ĠChina": 3586,
      "Ġmaster": 3587,
      "ĠFrench": 3588,
      "ĠSw": 3589,
      "leg": 3590,
      "ĠHer": 3591,
      "ulture": 3592,
      "asks": 3593,
      "rought": 3594,
      "Ġstrugg": 3595,
      "Ġir": 3596,
      "chol": 3597,
      "ĠIts": 3598,
      "Ġdeliver": 3599,
      "Ġlines": 3600,
      "ashing": 3601,
      "ĠNot": 3602,
      "Ġclin": 3603,
      "Ġsqu": 3604,
      "Ġlimit": 3605,
      "Ġcompl": 3606,
      "Ġstructures": 3607,
      "Ġder": 3608,
      "Ġflex": 3609,
      "Ġeveryone": 3610,
      "Ġmix": 3611,
      "ES": 3612,
      "Ġawareness": 3613,
      "Ġ25": 3614,
      "ĠAlthough": 3615,
      "right": 3616,
      "ĠOb": 3617,
      "Ġenvironments": 3618,
      "ached": 3619,
      "Ġmanaging": 3620,
      "Ġcarbon": 3621,
      "Ġexamples": 3622,
      "Ġprivate": 3623,
      "Ġfavor": 3624,
      "ogue": 3625,
      "ĠEncoura": 3626,
      "Ġlat": 3627,
      "pped": 3628,
      "Ġtool": 3629,
      "ĠDisc": 3630,
      "Ġlack": 3631,
      "Ġconsequ": 3632,
      "lands": 3633,
      "gt": 3634,
      "Ġacad": 3635,
      "Ġfem": 3636,
      "ĠQu": 3637,
      "acity": 3638,
      "Ġroles": 3639,
      "onom": 3640,
      "Ġearlier": 3641,
      "auti": 3642,
      "Ġadded": 3643,
      "riter": 3644,
      "anks": 3645,
      "Ð°": 3646,
      "Ġanimal": 3647,
      "Ġworth": 3648,
      "Ġconsistent": 3649,
      "Ġchoose": 3650,
      "Ġ50": 3651,
      "Ã¤": 3652,
      "titute": 3653,
      "Ġcam": 3654,
      "Ġdire": 3655,
      "Ġmere": 3656,
      "iding": 3657,
      "Ġexamining": 3658,
      "Ġinterp": 3659,
      "ept": 3660,
      "Ġpotentially": 3661,
      "Ġhands": 3662,
      "Ġwild": 3663,
      "Ġcard": 3664,
      "ĠEff": 3665,
      "ĠBal": 3666,
      "##": 3667,
      "Ġbroader": 3668,
      "Ġhon": 3669,
      "Ġmut": 3670,
      "Ġoutput": 3671,
      "Ġfamilies": 3672,
      "ancy": 3673,
      "atur": 3674,
      "Ġdou": 3675,
      "Ġfast": 3676,
      "Ġbelieve": 3677,
      "rie": 3678,
      "Ġox": 3679,
      "Ġrespond": 3680,
      "pass": 3681,
      "Ġhypot": 3682,
      "ĠAut": 3683,
      "ii": 3684,
      "Ġartists": 3685,
      "world": 3686,
      "apter": 3687,
      "Ġdeeper": 3688,
      "mental": 3689,
      "ĠSk": 3690,
      "Ġprop": 3691,
      "Ġhy": 3692,
      "Ġrock": 3693,
      "Ġ194": 3694,
      "Ġresulting": 3695,
      "Ġshaping": 3696,
      "iences": 3697,
      "Ġsharing": 3698,
      "gg": 3699,
      "Ġscenar": 3700,
      "Ġprepar": 3701,
      "Ġrecommend": 3702,
      "Ġcultiv": 3703,
      "Ġ+": 3704,
      "tenance": 3705,
      "Ġoptimal": 3706,
      "Ġblock": 3707,
      "Ġwood": 3708,
      "bor": 3709,
      "Ġtoward": 3710,
      "Ġpoor": 3711,
      "yle": 3712,
      "oser": 3713,
      "Ġillustr": 3714,
      "Ġexercise": 3715,
      "Ġforward": 3716,
      "ĠOverview": 3717,
      "Ġrout": 3718,
      "Ġelectric": 3719,
      "Ġwatch": 3720,
      "Ġvo": 3721,
      "Ġheld": 3722,
      "reet": 3723,
      "Ġexposure": 3724,
      "Ġconstruc": 3725,
      "ĠMc": 3726,
      "Ġord": 3727,
      "ĠVal": 3728,
      "iation": 3729,
      "Ġextra": 3730,
      "Ġcou": 3731,
      "Ġsustainable": 3732,
      "ĠRed": 3733,
      "Ġfat": 3734,
      "Ġchallenging": 3735,
      "elt": 3736,
      "Ġongoing": 3737,
      "Ġinstruction": 3738,
      "Ġwaste": 3739,
      "ĠBusiness": 3740,
      "year": 3741,
      "Ġcand": 3742,
      "Ġeye": 3743,
      "iers": 3744,
      "aul": 3745,
      "Ġinstitutions": 3746,
      "Ġscientific": 3747,
      "ĠPersonal": 3748,
      "mission": 3749,
      "Key": 3750,
      "Ġformer": 3751,
      "Ġtend": 3752,
      "oe": 3753,
      "armaceutical": 3754,
      "Ġfear": 3755,
      "set": 3756,
      "Ġshape": 3757,
      "weet": 3758,
      "cean": 3759,
      "work": 3760,
      "ĠAct": 3761,
      "ĠEach": 3762,
      "Ġbenefit": 3763,
      "ĠJan": 3764,
      "Ġtalk": 3765,
      "Ġinitial": 3766,
      "ĠIndian": 3767,
      "Ġgenerally": 3768,
      "ided": 3769,
      "Ġidentity": 3770,
      "ham": 3771,
      "orage": 3772,
      "Ġsolution": 3773,
      "Ġmil": 3774,
      "Ġtable": 3775,
      "Ġteams": 3776,
      "Ġpresence": 3777,
      "Ġresilience": 3778,
      "Ġ/": 3779,
      "Ġcivil": 3780,
      "Ġreported": 3781,
      "Ġrobust": 3782,
      "ĠOff": 3783,
      "ĠWest": 3784,
      "Ġeffort": 3785,
      "na": 3786,
      "Ġhom": 3787,
      "ocal": 3788,
      "ĠArt": 3789,
      "che": 3790,
      "Ġcontinued": 3791,
      "aks": 3792,
      "Ġwond": 3793,
      "ĠPower": 3794,
      "Ġcreative": 3795,
      "Ġleaders": 3796,
      "Ġstarted": 3797,
      "Ġbirth": 3798,
      "Ġreligious": 3799,
      "Ġeat": 3800,
      "ĠImp": 3801,
      "ĠScience": 3802,
      "mosp": 3803,
      "Ġfollows": 3804,
      "Ġtast": 3805,
      "haps": 3806,
      "Ġgetting": 3807,
      "onic": 3808,
      "Ġtopics": 3809,
      "oyal": 3810,
      "Ġoption": 3811,
      "Ġarri": 3812,
      "Ġprice": 3813,
      "ĠImport": 3814,
      "being": 3815,
      "Ġdecre": 3816,
      "ĠStrategies": 3817,
      "ĠJes": 3818,
      "Ġearth": 3819,
      "ĠTherefore": 3820,
      "Ġslow": 3821,
      "Ġexact": 3822,
      "Ġaverage": 3823,
      "ĠManagement": 3824,
      "ino": 3825,
      "Ġsettings": 3826,
      "Ġcelebr": 3827,
      "urt": 3828,
      "Ġsect": 3829,
      "Ġcitiz": 3830,
      "eff": 3831,
      "rics": 3832,
      "Ġphr": 3833,
      "Ġgot": 3834,
      "Ġexch": 3835,
      "Ġinput": 3836,
      "Ġresource": 3837,
      "Ġhyd": 3838,
      "Ġstaff": 3839,
      "Ġexperienced": 3840,
      "uments": 3841,
      "Ġfather": 3842,
      "ticip": 3843,
      "uality": 3844,
      "ctive": 3845,
      "Ġproduced": 3846,
      "Ġinstruc": 3847,
      "Ġsoil": 3848,
      "Ġinterests": 3849,
      "Ġwrite": 3850,
      "Ġmount": 3851,
      "icient": 3852,
      "ressive": 3853,
      "Ġansw": 3854,
      "Ġlargest": 3855,
      "Ġitems": 3856,
      "Ġdifferences": 3857,
      "Ġdespite": 3858,
      "Ġattack": 3859,
      "ĠAnaly": 3860,
      "Ġauthentic": 3861,
      "ĠAnalysis": 3862,
      "Ġtold": 3863,
      "Ġpieces": 3864,
      "Ġchallenge": 3865,
      "Ġenabling": 3866,
      "Ġrecip": 3867,
      "IS": 3868,
      "Ġdifference": 3869,
      "uary": 3870,
      "At": 3871,
      "Ġtesting": 3872,
      "ĠHel": 3873,
      "Ġpic": 3874,
      "faction": 3875,
      "Ġbreat": 3876,
      "athy": 3877,
      "ĠMy": 3878,
      "son": 3879,
      "lim": 3880,
      "ĠFirst": 3881,
      "Ġfish": 3882,
      "rief": 3883,
      "ulner": 3884,
      "ĠMany": 3885,
      "Ġwhose": 3886,
      "Ġveget": 3887,
      "bum": 3888,
      "rag": 3889,
      "ĠProt": 3890,
      "Ġdescribed": 3891,
      "Ġden": 3892,
      "Ġsold": 3893,
      "Ġvariety": 3894,
      "Ġeasily": 3895,
      "iforn": 3896,
      "Ġmiss": 3897,
      "Ġprimarily": 3898,
      "Ġhous": 3899,
      "ama": 3900,
      "Ġshown": 3901,
      "ĠExper": 3902,
      "Ġguide": 3903,
      "Ġoffering": 3904,
      "Ġextremely": 3905,
      "Ġlabor": 3906,
      "Ġang": 3907,
      "Ġwent": 3908,
      "Ġep": 3909,
      "ĠBra": 3910,
      "Ġbooks": 3911,
      "Ġconcent": 3912,
      "lights": 3913,
      "tiveness": 3914,
      "ĠPri": 3915,
      "urban": 3916,
      "esthe": 3917,
      "Ġforces": 3918,
      "Ġalike": 3919,
      "Ġcareful": 3920,
      "oly": 3921,
      "Ġsouth": 3922,
      "Ġhope": 3923,
      "Ġinstru": 3924,
      "Ġnorth": 3925,
      "Ġvary": 3926,
      "Ġamid": 3927,
      "ager": 3928,
      "ilos": 3929,
      "Ġexcell": 3930,
      "Ġperce": 3931,
      "ounds": 3932,
      "Ġten": 3933,
      "Ġintellig": 3934,
      "airs": 3935,
      "ĠDuring": 3936,
      "Ġexhib": 3937,
      "On": 3938,
      "ĠEst": 3939,
      "Ġsecure": 3940,
      "Ġpage": 3941,
      "ĠPresident": 3942,
      "Ġemail": 3943,
      "ĠProf": 3944,
      "Ġworldwide": 3945,
      "Ġtitle": 3946,
      "ĠItal": 3947,
      "orial": 3948,
      "25": 3949,
      "ĠSuch": 3950,
      "Ġhair": 3951,
      "oti": 3952,
      "cing": 3953,
      "Ġfasc": 3954,
      "Ġdim": 3955,
      "Ġcreation": 3956,
      "wise": 3957,
      "ĠÃ": 3958,
      "Ġserious": 3959,
      "ĠII": 3960,
      "Ġnation": 3961,
      "ought": 3962,
      "Ġnamed": 3963,
      "ĠGerman": 3964,
      "Ġconstant": 3965,
      "Ġlost": 3966,
      "Ġhimself": 3967,
      "Ġappreciation": 3968,
      "vent": 3969,
      "ĠColl": 3970,
      "ĠDav": 3971,
      "owers": 3972,
      "Ġgold": 3973,
      "Ġtheory": 3974,
      "Ġtherapy": 3975,
      "Ġacid": 3976,
      "Ġwon": 3977,
      "aid": 3978,
      "acing": 3979,
      "plement": 3980,
      "Ð¸": 3981,
      "tr": 3982,
      "Ġlength": 3983,
      "ĠAug": 3984,
      "Ġweather": 3985,
      "uge": 3986,
      "Ġ24": 3987,
      "Ġseems": 3988,
      "ĠBr": 3989,
      "Ġdry": 3990,
      "Ġincluded": 3991,
      "Ġbad": 3992,
      "Ġvs": 3993,
      "Ġsn": 3994,
      "Ġaffect": 3995,
      "eu": 3996,
      "ĠRet": 3997,
      "titution": 3998,
      "used": 3999,
      "ifornia": 4000,
      "Ġbuy": 4001,
      "ĠPart": 4002,
      "Ġimprovement": 4003,
      "Ġrules": 4004,
      "Ġcounter": 4005,
      "Ġarchitect": 4006,
      "Ġinitiatives": 4007,
      "Ġsupply": 4008,
      "Ġneigh": 4009,
      "Ġmotiv": 4010,
      "ondon": 4011,
      "ĠData": 4012,
      "Is": 4013,
      "aker": 4014,
      "âĢ¦": 4015,
      "Ad": 4016,
      "iter": 4017,
      "Ġdead": 4018,
      "Ġexpectations": 4019,
      "Ġhosp": 4020,
      "ĠDem": 4021,
      "Ġconsumers": 4022,
      "ÑĤ": 4023,
      "Ġcapable": 4024,
      "Ġwoman": 4025,
      "Ġsection": 4026,
      "Ġgir": 4027,
      "Ġbacter": 4028,
      "Ġfunctions": 4029,
      "Ġprivacy": 4030,
      "Ġfight": 4031,
      "uman": 4032,
      "Ġcircum": 4033,
      "ĠSocial": 4034,
      "Ġstatus": 4035,
      "Ġonto": 4036,
      "ĠEngland": 4037,
      "Ġtasks": 4038,
      "Ġsuggests": 4039,
      "Ġband": 4040,
      "Ġnormal": 4041,
      "Ġmanage": 4042,
      "Ġenable": 4043,
      "ximately": 4044,
      "off": 4045,
      "ĠOther": 4046,
      "Ġdang": 4047,
      "Ġgoes": 4048,
      "Ġsusp": 4049,
      "Ġpeace": 4050,
      "Ġcenter": 4051,
      "cious": 4052,
      "Ġhtt": 4053,
      "Ġingredients": 4054,
      "Ġminutes": 4055,
      "ĠUse": 4056,
      "Ġbehavi": 4057,
      "Ġdriving": 4058,
      "Ġaudience": 4059,
      "Ġelse": 4060,
      "Ġartis": 4061,
      "Ġdistinct": 4062,
      "etal": 4063,
      "Ġpan": 4064,
      "Ġdisplay": 4065,
      "Ġatmosp": 4066,
      "Ġcarry": 4067,
      "Ġteaching": 4068,
      "Ġinvolving": 4069,
      "Ġfair": 4070,
      "Ġsched": 4071,
      "Ø§": 4072,
      "Ġinvestment": 4073,
      "enses": 4074,
      "rest": 4075,
      "Ġapply": 4076,
      "icated": 4077,
      "Ġlaws": 4078,
      "21": 4079,
      "ula": 4080,
      "Ġdiscover": 4081,
      "Ġleadership": 4082,
      "Ġconstruction": 4083,
      "Ġfront": 4084,
      "Ġteachers": 4085,
      "Ġplayed": 4086,
      "Ġaimed": 4087,
      "Ġpen": 4088,
      "ogle": 4089,
      "ky": 4090,
      "Ġfuel": 4091,
      "ingu": 4092,
      "rip": 4093,
      "Ġago": 4094,
      "Ġcool": 4095,
      "ĠPark": 4096,
      "ĠAssoci": 4097,
      "ading": 4098,
      "Ġfootball": 4099,
      "lation": 4100,
      "Ġreceived": 4101,
      "Ġdeal": 4102,
      "Ġmoment": 4103,
      "Ġfaced": 4104,
      "Ġspeed": 4105,
      "Ġregul": 4106,
      "Ġancient": 4107,
      "Ġfoods": 4108,
      "Ġsea": 4109,
      "Ġsevere": 4110,
      "ON": 4111,
      "Ġfully": 4112,
      "IN": 4113,
      "Ġsmaller": 4114,
      "Ġvulner": 4115,
      "Ġfeet": 4116,
      "Ġdiss": 4117,
      "Ġplayer": 4118,
      "Ġexploration": 4119,
      "holders": 4120,
      "ĠImportance": 4121,
      "Ġcris": 4122,
      "pan": 4123,
      "Ġsav": 4124,
      "Ġshowc": 4125,
      "ĠTyp": 4126,
      "ĠCur": 4127,
      "ĠRole": 4128,
      "Ġarr": 4129,
      "Ġseam": 4130,
      "ommod": 4131,
      "Ġthorough": 4132,
      "Ġborn": 4133,
      "Ġalthough": 4134,
      "Ġball": 4135,
      "Ġast": 4136,
      "Ġcommerc": 4137,
      "auty": 4138,
      "Ġcode": 4139,
      "ĠAdd": 4140,
      "unch": 4141,
      "``": 4142,
      "hus": 4143,
      "Ġpossess": 4144,
      "Ġexternal": 4145,
      "Ġdrive": 4146,
      "Ġtrade": 4147,
      "Ġsoon": 4148,
      "Ġdistribution": 4149,
      "Ġsituations": 4150,
      "Ġbud": 4151,
      "ĠCalifornia": 4152,
      "Ġbeginning": 4153,
      "ĠAfrica": 4154,
      "ĠHistory": 4155,
      "Ġcapacity": 4156,
      "Ġobject": 4157,
      "Ġstake": 4158,
      "ceed": 4159,
      "Ġcontroll": 4160,
      "ĠChe": 4161,
      "Ġsets": 4162,
      "ĠPublic": 4163,
      "ares": 4164,
      "Ġobtain": 4165,
      "Ġcontains": 4166,
      "book": 4167,
      "Ġmemory": 4168,
      "Ġdiseases": 4169,
      "ĠDefinition": 4170,
      "Ġquite": 4171,
      "Ġmid": 4172,
      "outhern": 4173,
      "Ġcontributing": 4174,
      "Ġcalc": 4175,
      "Ġcontinuous": 4176,
      "ague": 4177,
      "Ġexcess": 4178,
      "ĠBo": 4179,
      "Ġsenti": 4180,
      "Ġcollection": 4181,
      "Ġtransp": 4182,
      "Ġefficient": 4183,
      "Ġspaces": 4184,
      "Ġtrying": 4185,
      "Ġreceive": 4186,
      "Ġcollege": 4187,
      "Ġesc": 4188,
      "Ġthous": 4189,
      "ĠJour": 4190,
      "quality": 4191,
      "Ġvirus": 4192,
      "ued": 4193,
      "Ġtransfer": 4194,
      "Ġwrong": 4195,
      "Ġoffice": 4196,
      "Ġreleased": 4197,
      "Ġbit": 4198,
      "rew": 4199,
      "ĠJesus": 4200,
      "pril": 4201,
      "Pro": 4202,
      "ĠGra": 4203,
      "Ġfamiliar": 4204,
      "Ġcapabilities": 4205,
      "uk": 4206,
      "Ġstrengt": 4207,
      "Ġvacc": 4208,
      "Ġson": 4209,
      "Ġfer": 4210,
      "ĠHouse": 4211,
      "Ġfresh": 4212,
      "Ġrelease": 4213,
      "Ġbond": 4214,
      "ĠCenter": 4215,
      "Ġdat": 4216,
      "Ġdate": 4217,
      "elry": 4218,
      "Ġfeedback": 4219,
      "Ġhighlights": 4220,
      "Ġbab": 4221,
      "Ġmill": 4222,
      "Ġtransportation": 4223,
      "ĠGovern": 4224,
      "Ġdur": 4225,
      "Ġ*": 4226,
      "omet": 4227,
      "asting": 4228,
      "Ġtiss": 4229,
      "Ġmetal": 4230,
      "Ġcold": 4231,
      "Ġmember": 4232,
      "Ġhol": 4233,
      "herent": 4234,
      "itig": 4235,
      "icians": 4236,
      "ĠSol": 4237,
      "Ġreput": 4238,
      "Ġdevice": 4239,
      "Ġleave": 4240,
      "Ġmanufacture": 4241,
      "Ġalone": 4242,
      "iration": 4243,
      "ocks": 4244,
      "iety": 4245,
      "Ġfollowed": 4246,
      "Ġbrought": 4247,
      "Ġdefinition": 4248,
      "Ġcharacteristics": 4249,
      "Ġenter": 4250,
      "vest": 4251,
      "Ġdark": 4252,
      "Ġcreativity": 4253,
      "Ġpreserv": 4254,
      "Ġmaintenance": 4255,
      "Ġparty": 4256,
      "Ġconsumption": 4257,
      "Ġscientists": 4258,
      "eks": 4259,
      "inese": 4260,
      "ĠKe": 4261,
      "Ġsales": 4262,
      "Ġdecl": 4263,
      "Ġdepending": 4264,
      "Ġmechanisms": 4265,
      "Ġpartnership": 4266,
      "Ġadvantages": 4267,
      "Ġbeauti": 4268,
      "ĠSur": 4269,
      "Ġhumans": 4270,
      "ĠOct": 4271,
      "ĠMarch": 4272,
      "Ġlessons": 4273,
      "Ġinternal": 4274,
      "Ġadvoc": 4275,
      "Ġparties": 4276,
      "Ġsites": 4277,
      "ĠLondon": 4278,
      "orthern": 4279,
      "raft": 4280,
      "ĠCho": 4281,
      "Ġresistance": 4282,
      "Ġencourage": 4283,
      "Im": 4284,
      "Ġweak": 4285,
      "He": 4286,
      "inations": 4287,
      "ĠLeg": 4288,
      "ĠMarketing": 4289,
      "More": 4290,
      "ĠOf": 4291,
      "ont": 4292,
      "Ġclients": 4293,
      "ĠDet": 4294,
      "Ġrecently": 4295,
      "Ġadvent": 4296,
      "Ġregulations": 4297,
      "Ġimproving": 4298,
      "Ġdesired": 4299,
      "Ġurban": 4300,
      "23": 4301,
      "Ġtrack": 4302,
      "Ġgrad": 4303,
      "Ġstorage": 4304,
      "Ġalbum": 4305,
      "arian": 4306,
      "Ġevolution": 4307,
      "Ġelev": 4308,
      "rict": 4309,
      "ĠThen": 4310,
      "Ġamb": 4311,
      "Ġjew": 4312,
      "Ġframew": 4313,
      "Ġkids": 4314,
      "Ġpresented": 4315,
      "Ġusage": 4316,
      "ĠRef": 4317,
      "Ġvill": 4318,
      "Ġcutting": 4319,
      "ĠRiver": 4320,
      "Ġartist": 4321,
      "Ġexpression": 4322,
      "ĠAfrican": 4323,
      "ĠOrgan": 4324,
      "reek": 4325,
      "Ġthemes": 4326,
      "omb": 4327,
      "eline": 4328,
      "Ġpractical": 4329,
      "yth": 4330,
      "Ġaccurate": 4331,
      "Ġchanging": 4332,
      "Ġleaves": 4333,
      "Ġcoast": 4334,
      "riteria": 4335,
      "'ve": 4336,
      "Ġimages": 4337,
      "Ġeverything": 4338,
      "Ġmeaningful": 4339,
      "cles": 4340,
      "ifying": 4341,
      "Ġ40": 4342,
      "agraph": 4343,
      "Ġparticipants": 4344,
      "lin": 4345,
      "Ġprobably": 4346,
      "istry": 4347,
      "Ġ2012": 4348,
      "Ġanx": 4349,
      "Ġversion": 4350,
      "Ġregional": 4351,
      "odes": 4352,
      "Ġselection": 4353,
      "ãģ": 4354,
      "oses": 4355,
      "text": 4356,
      "Ġplaces": 4357,
      "key": 4358,
      "Ġworkers": 4359,
      "ED": 4360,
      "titude": 4361,
      "Ġrecords": 4362,
      "Ġnote": 4363,
      "Ġlearners": 4364,
      "Ġrigorous": 4365,
      "Ġpassage": 4366,
      "ĠLaw": 4367,
      "ensions": 4368,
      "husi": 4369,
      "Ġsequ": 4370,
      "ĠRoman": 4371,
      "Ġnetworks": 4372,
      "Ġconver": 4373,
      "ara": 4374,
      "ipl": 4375,
      "resents": 4376,
      "Ġà": 4377,
      "rab": 4378,
      "ĠCor": 4379,
      "ha": 4380,
      "Ġaffected": 4381,
      "amb": 4382,
      "Ġobjects": 4383,
      "Ġenthusi": 4384,
      "Ġinteractions": 4385,
      "Ġdidn": 4386,
      "ĠCounty": 4387,
      "Ġice": 4388,
      "Ġembracing": 4389,
      "ĠDon": 4390,
      "Ġasked": 4391,
      "raw": 4392,
      "Ġanswers": 4393,
      "unction": 4394,
      "Ġconsiderations": 4395,
      "Ġrunning": 4396,
      "Ġvit": 4397,
      "ĠCap": 4398,
      "Ġappreciate": 4399,
      "ibly": 4400,
      "Ġsports": 4401,
      "ĠVir": 4402,
      "Ġtree": 4403,
      "Ġroad": 4404,
      "**:": 4405,
      "ĠEmp": 4406,
      "amental": 4407,
      "Ġcitizens": 4408,
      "Ġprocedures": 4409,
      "rastructure": 4410,
      "AC": 4411,
      "Ġ2010": 4412,
      "Ġ#": 4413,
      "ĠMost": 4414,
      "Ġleads": 4415,
      "Ġpursu": 4416,
      "Ġseamless": 4417,
      "where": 4418,
      "asion": 4419,
      "Ġpolitics": 4420,
      "Ġlearned": 4421,
      "down": 4422,
      "ius": 4423,
      "Ġconsequences": 4424,
      "zz": 4425,
      "Ġcer": 4426,
      "Ġparam": 4427,
      "Ġrein": 4428,
      "overs": 4429,
      "ford": 4430,
      "alle": 4431,
      "Ġreasons": 4432,
      "Ġimplementing": 4433,
      "Ġcommercial": 4434,
      "Ġcompar": 4435,
      "Ġanalyze": 4436,
      "ĠExp": 4437,
      "Ġnuc": 4438,
      "itc": 4439,
      "Ġoffered": 4440,
      "ĠConn": 4441,
      "Ġinterpret": 4442,
      "ĠCare": 4443,
      "Ġroot": 4444,
      "ographic": 4445,
      "itch": 4446,
      "rical": 4447,
      "Ġking": 4448,
      "Ġrepl": 4449,
      "ĠMr": 4450,
      "ĠWilliam": 4451,
      "Ġ2011": 4452,
      "Ġconsult": 4453,
      "ĠChild": 4454,
      "ĠImpact": 4455,
      "Ġhypothesis": 4456,
      "Ġapproximately": 4457,
      "idential": 4458,
      "Ġregions": 4459,
      "Ġfederal": 4460,
      "ĠAugust": 4461,
      "abet": 4462,
      "Ġopin": 4463,
      "ĠProduc": 4464,
      "Ġexpertise": 4465,
      "22": 4466,
      "Ġaudiences": 4467,
      "Ġstop": 4468,
      "ĠThus": 4469,
      "Ġseek": 4470,
      "Ġfine": 4471,
      "Ġ2013": 4472,
      "Ġcontrast": 4473,
      "Ġgard": 4474,
      "exic": 4475,
      "Ġcircumst": 4476,
      "Ġfile": 4477,
      "anish": 4478,
      "Ġteacher": 4479,
      "ĠOur": 4480,
      "ĠAng": 4481,
      "Ġskill": 4482,
      "Ġintricate": 4483,
      "Ġnavigate": 4484,
      "Ġsac": 4485,
      "Ġ:": 4486,
      "Ġamidst": 4487,
      "Ġtruly": 4488,
      "gn": 4489,
      "Ġemotions": 4490,
      "Ġrepresents": 4491,
      "ĠDel": 4492,
      "friend": 4493,
      "ĠHere": 4494,
      "Ġchannels": 4495,
      "Ġvision": 4496,
      "Ġaesthe": 4497,
      "Ġcourt": 4498,
      "Ġcater": 4499,
      "Ġbecoming": 4500,
      "ensity": 4501,
      "Ġsatisfaction": 4502,
      "Ġmonitoring": 4503,
      "Ġpet": 4504,
      "Ġconsumer": 4505,
      "____": 4506,
      "rant": 4507,
      "Ġmission": 4508,
      "coh": 4509,
      "resp": 4510,
      "ĠUtil": 4511,
      "Ġrise": 4512,
      "AN": 4513,
      "era": 4514,
      "Ġgiving": 4515,
      "Ġtherefore": 4516,
      "Ġhistor": 4517,
      "ĠJune": 4518,
      "ĠDo": 4519,
      "Ġeyes": 4520,
      "ĠImplement": 4521,
      "sequently": 4522,
      "idden": 4523,
      "Ġforeign": 4524,
      "men": 4525,
      "poses": 4526,
      "Ġethical": 4527,
      "Ġaccommod": 4528,
      "Ġplaying": 4529,
      "Ġprocessing": 4530,
      "Ġdynamics": 4531,
      "Ġwat": 4532,
      "Ġrequiring": 4533,
      "ĠRepublic": 4534,
      "Ġgained": 4535,
      "ĠMain": 4536,
      "Ġemerging": 4537,
      "ĠSept": 4538,
      "Ġdepend": 4539,
      "Ġbox": 4540,
      "Ġsupporting": 4541,
      "hips": 4542,
      "ĠDepartment": 4543,
      "iny": 4544,
      "oke": 4545,
      "Ġshall": 4546,
      "Ġexperiment": 4547,
      "Ġadvers": 4548,
      "pectives": 4549,
      "Ġunderlying": 4550,
      "bl": 4551,
      "Ġtrees": 4552,
      "eck": 4553,
      "avors": 4554,
      "ĠPr": 4555,
      "Ġlin": 4556,
      "Ġpor": 4557,
      "ecause": 4558,
      "ĠNow": 4559,
      "Ġconsidering": 4560,
      "ĠOut": 4561,
      "Ġpharmaceutical": 4562,
      "Ġreaders": 4563,
      "Ġ2015": 4564,
      "Ġcommand": 4565,
      "ĠApril": 4566,
      "ĠChinese": 4567,
      "ĠAir": 4568,
      "Ġsaw": 4569,
      "Ġacknow": 4570,
      "water": 4571,
      "ald": 4572,
      "Us": 4573,
      "Ð½": 4574,
      "Ġanalyzing": 4575,
      "60": 4576,
      "Ġfindings": 4577,
      "Ġgather": 4578,
      "Ġdialogue": 4579,
      "ken": 4580,
      "Ġresponsibility": 4581,
      "otor": 4582,
      "OR": 4583,
      "erate": 4584,
      "ashington": 4585,
      "rote": 4586,
      "coming": 4587,
      "Ġexception": 4588,
      "venue": 4589,
      "urning": 4590,
      "itness": 4591,
      "Ġcompetitive": 4592,
      "Ġboundaries": 4593,
      "ĠGreat": 4594,
      "ipped": 4595,
      "Ġstore": 4596,
      "Ġmachine": 4597,
      "Ġweeks": 4598,
      "ĠUp": 4599,
      "lamm": 4600,
      "cil": 4601,
      "raction": 4602,
      "Ġbott": 4603,
      "Ġvic": 4604,
      "Ġexpected": 4605,
      "ĠAdv": 4606,
      "Ġcommonly": 4607,
      "Ġmolec": 4608,
      "Ġnames": 4609,
      "Ġcontinues": 4610,
      "Ġreality": 4611,
      "Ġcollective": 4612,
      "mber": 4613,
      "Ġpun": 4614,
      "ĠBuilding": 4615,
      "Ġobjectives": 4616,
      "Ġattribut": 4617,
      "Ġ2014": 4618,
      "Ġdepth": 4619,
      "Ġegg": 4620,
      "Ġimpacts": 4621,
      "Ġsigns": 4622,
      "Ġbul": 4623,
      "ĠEnviron": 4624,
      "hab": 4625,
      "ups": 4626,
      "Ġthereby": 4627,
      "ĠSan": 4628,
      "Ġapplied": 4629,
      "Ġvalid": 4630,
      "Ġcandid": 4631,
      "Ġsugar": 4632,
      "verse": 4633,
      "eng": 4634,
      "ĠEast": 4635,
      "essor": 4636,
      "Ġreports": 4637,
      "known": 4638,
      "Ġfields": 4639,
      "ĠExamples": 4640,
      "Ġtouch": 4641,
      "cip": 4642,
      "semb": 4643,
      "ĠAv": 4644,
      "Ġphilos": 4645,
      "Ġapart": 4646,
      "ĠRo": 4647,
      "Ġcloser": 4648,
      "rows": 4649,
      "Ġtopic": 4650,
      "Ġempowerment": 4651,
      "Ġbeauty": 4652,
      "icy": 4653,
      "Ġalg": 4654,
      "Ġintegration": 4655,
      "Ġfascinating": 4656,
      "oul": 4657,
      "ĠCanada": 4658,
      "ĠChurch": 4659,
      "undred": 4660,
      "Ġeconomy": 4661,
      "Ġtechnical": 4662,
      "Ġdescribe": 4663,
      "Ġcapture": 4664,
      "Ġplot": 4665,
      "Ġdedicated": 4666,
      "Ġparagraph": 4667,
      "Ġmoving": 4668,
      "ĠColle": 4669,
      "ails": 4670,
      "ĠDay": 4671,
      "Ġnearly": 4672,
      "Ġalongside": 4673,
      "Ġreveal": 4674,
      "Ġideal": 4675,
      "edom": 4676,
      "Ġprefer": 4677,
      "Ġbelong": 4678,
      "Ġtac": 4679,
      "pris": 4680,
      "ĠPers": 4681,
      "Ġrepe": 4682,
      "Ġcausing": 4683,
      "Ġconflict": 4684,
      "Ġagric": 4685,
      "Ġpolice": 4686,
      "Ġtraffic": 4687,
      "Tr": 4688,
      "ĠNe": 4689,
      "Ġinfrastructure": 4690,
      "Ġassign": 4691,
      "Ġ21": 4692,
      "Ġcooking": 4693,
      "Ġprotein": 4694,
      "rees": 4695,
      "house": 4696,
      "ille": 4697,
      "Ġadding": 4698,
      "riers": 4699,
      "Ġpurposes": 4700,
      "Ġappeal": 4701,
      "rate": 4702,
      "pts": 4703,
      "ĠCoun": 4704,
      "roup": 4705,
      "ĠInstead": 4706,
      "Ġstyles": 4707,
      "apes": 4708,
      "Ġcredit": 4709,
      "ocation": 4710,
      "Ġvast": 4711,
      "Ġmeeting": 4712,
      "Ġtests": 4713,
      "80": 4714,
      "Ġsmooth": 4715,
      "Ġincome": 4716,
      "Ġdynamic": 4717,
      "Ġsensitive": 4718,
      "rich": 4719,
      "ognitive": 4720,
      "ĠMexic": 4721,
      "exp": 4722,
      "rael": 4723,
      "Ġcircumstances": 4724,
      "Ġbed": 4725,
      "Ġanything": 4726,
      "orking": 4727,
      "24": 4728,
      "Another": 4729,
      "Ġdesigns": 4730,
      "Ġcomprom": 4731,
      "Ġidentified": 4732,
      "ĠCommon": 4733,
      "www": 4734,
      "Ġincreases": 4735,
      "Ġstakeholders": 4736,
      "Ġnarrative": 4737,
      "ĠBlack": 4738,
      "Ġexamination": 4739,
      "Ġallowed": 4740,
      "atin": 4741,
      "Ġrestric": 4742,
      "ĠBoth": 4743,
      "compass": 4744,
      "Ġunivers": 4745,
      "Ġnothing": 4746,
      "Ġx": 4747,
      "ĠJuly": 4748,
      "Ġfoundation": 4749,
      "Ġbodies": 4750,
      "Ġcriteria": 4751,
      "ĠResp": 4752,
      "tity": 4753,
      "Ġmarkets": 4754,
      "Ġdemoc": 4755,
      "orge": 4756,
      "ĠPress": 4757,
      "tery": 4758,
      "ĠTechnology": 4759,
      "Ġmessage": 4760,
      "Ġfocused": 4761,
      "Ġhabit": 4762,
      "However": 4763,
      "ovember": 4764,
      "Ġsubstanti": 4765,
      "Ġdevelopers": 4766,
      "Ġartistic": 4767,
      "Ġdiversity": 4768,
      "Ġmal": 4769,
      "Ġglass": 4770,
      "Ġacademic": 4771,
      "Ġsentiment": 4772,
      "Ġoperating": 4773,
      "Ġremind": 4774,
      "related": 4775,
      "Ġseparate": 4776,
      "och": 4777,
      "ĠApplic": 4778,
      "ĠAre": 4779,
      "uing": 4780,
      "ĠReview": 4781,
      "antic": 4782,
      "Ñģ": 4783,
      "ĠMat": 4784,
      "Ġcarefully": 4785,
      "Ġsummer": 4786,
      "osen": 4787,
      "Ġfinding": 4788,
      "Ġelement": 4789,
      "Ġgeneration": 4790,
      "ĠProvide": 4791,
      "essions": 4792,
      "And": 4793,
      "Ġrare": 4794,
      "ĠEvalu": 4795,
      "ĠJapanese": 4796,
      "ĠPlan": 4797,
      "Ġoccup": 4798,
      "ams": 4799,
      "inate": 4800,
      "ivery": 4801,
      "ĠUl": 4802,
      "Ġschol": 4803,
      "Ġcities": 4804,
      "Ġheavy": 4805,
      "ĠSince": 4806,
      "Ġinfection": 4807,
      "Ġfrequently": 4808,
      "Ġgar": 4809,
      "nel": 4810,
      "ĠJanuary": 4811,
      "aught": 4812,
      "Ġphen": 4813,
      "ĠSet": 4814,
      "ratic": 4815,
      "ĠUK": 4816,
      "Ġunf": 4817,
      "Ġafford": 4818,
      "Ġabsor": 4819,
      "Ġdied": 4820,
      "IC": 4821,
      "ĠWashington": 4822,
      "hest": 4823,
      "Ġhear": 4824,
      "unt": 4825,
      "Ġappears": 4826,
      "Ġfundamental": 4827,
      "Ġshif": 4828,
      "ĠSub": 4829,
      "Ġliqu": 4830,
      "Ġadults": 4831,
      "Ġgives": 4832,
      "board": 4833,
      "urd": 4834,
      "Ġolder": 4835,
      "Ġsolar": 4836,
      "Ġfix": 4837,
      "Ġimpl": 4838,
      "ĠSimilar": 4839,
      "inent": 4840,
      "ĠInteg": 4841,
      "Ġintelligence": 4842,
      "bal": 4843,
      "?\"": 4844,
      "Ġuseful": 4845,
      "Un": 4846,
      "Ġabilities": 4847,
      "Ġchurch": 4848,
      "ĠUsing": 4849,
      "itor": 4850,
      "iant": 4851,
      "ags": 4852,
      "umn": 4853,
      "Ġfeelings": 4854,
      "ĠFam": 4855,
      "Ġoccurs": 4856,
      "Ġremov": 4857,
      "ented": 4858,
      "Ġgraph": 4859,
      "ĠMich": 4860,
      "Ġtechnique": 4861,
      "Ġpopulations": 4862,
      "ĠQuestion": 4863,
      "Ġequal": 4864,
      "ĠVis": 4865,
      "ĠConf": 4866,
      "Ġenhanced": 4867,
      "Ġstatis": 4868,
      "Ġstarting": 4869,
      "ĠForm": 4870,
      "Ġperspective": 4871,
      "Ġsentences": 4872,
      "Ġpicture": 4873,
      "Ġseg": 4874,
      "Ar": 4875,
      "eries": 4876,
      "Ġath": 4877,
      "Ġprincip": 4878,
      "ĠInstitute": 4879,
      "lines": 4880,
      "Ã¡": 4881,
      "ners": 4882,
      "Ġblog": 4883,
      "ĠUnion": 4884,
      "Ġtechnological": 4885,
      "pted": 4886,
      "ributions": 4887,
      "Ġformed": 4888,
      "Ġpush": 4889,
      "Ġdoctor": 4890,
      "Ġmiddle": 4891,
      "Ġmusical": 4892,
      "ibrary": 4893,
      "Ġindependent": 4894,
      "ĠCollabor": 4895,
      "ĠPat": 4896,
      "ĠSeptember": 4897,
      "ĠSaf": 4898,
      "ectiveness": 4899,
      "gin": 4900,
      "anges": 4901,
      "Ġsuppl": 4902,
      "Ġteach": 4903,
      "Ġ2009": 4904,
      "Ġreflect": 4905,
      "Ġappearance": 4906,
      "Ġsyn": 4907,
      "Ġconclud": 4908,
      "Before": 4909,
      "Ġur": 4910,
      "ĠWeb": 4911,
      "ultane": 4912,
      "Ġvirtual": 4913,
      "Ġscale": 4914,
      "Ġmel": 4915,
      "Ġconcer": 4916,
      "Ġguidance": 4917,
      "ĠStudents": 4918,
      "Ġjewelry": 4919,
      "Ġclosely": 4920,
      "ĠPerform": 4921,
      "Ġcolon": 4922,
      "Ġdiscovered": 4923,
      "Ġadvantage": 4924,
      "ĠOnce": 4925,
      "mark": 4926,
      "ĠReal": 4927,
      "ĠOctober": 4928,
      "empl": 4929,
      ");": 4930,
      "Ġterrit": 4931,
      "ÑĢ": 4932,
      "arant": 4933,
      "Ġours": 4934,
      "Ġeating": 4935,
      "Ġdivid": 4936,
      "40": 4937,
      "Ġgenetic": 4938,
      "Ġatmosphere": 4939,
      "Ġwhe": 4940,
      "ĠMor": 4941,
      "osystem": 4942,
      "nes": 4943,
      "rick": 4944,
      "Ġimmers": 4945,
      "ulating": 4946,
      "ĠAccess": 4947,
      "Ġeventually": 4948,
      "ĠProgram": 4949,
      "Ġhandling": 4950,
      "ĠHistorical": 4951,
      "Ġperhaps": 4952,
      "Ġmort": 4953,
      "Ġple": 4954,
      "ĠFrance": 4955,
      "see": 4956,
      "Ġhundred": 4957,
      "Ġvehicle": 4958,
      "aming": 4959,
      "ifies": 4960,
      "Ġelim": 4961,
      "No": 4962,
      "ĠSoci": 4963,
      "Ġliterature": 4964,
      "cohol": 4965,
      "Ġdiscussions": 4966,
      "ĠWater": 4967,
      "Ġ2016": 4968,
      "load": 4969,
      "Ġcomponent": 4970,
      "Ġdiscussion": 4971,
      "Ä±": 4972,
      "Ġheight": 4973,
      "Ġfacilities": 4974,
      "Ġsynt": 4975,
      "ĠAustralia": 4976,
      "Re": 4977,
      "Ġmig": 4978,
      "ressing": 4979,
      "arency": 4980,
      "Ġwrote": 4981,
      "ĠHelp": 4982,
      "Ġinterview": 4983,
      "Ġnu": 4984,
      "Ġthri": 4985,
      "ishes": 4986,
      "ĠPal": 4987,
      "Ġlik": 4988,
      "Ġindustries": 4989,
      "Ġdemands": 4990,
      "Ġemployees": 4991,
      "With": 4992,
      "Ġannoun": 4993,
      "PA": 4994,
      "ĠAmericans": 4995,
      "Ã¼": 4996,
      "tification": 4997,
      "Ġstability": 4998,
      "Ġdiscipl": 4999,
      "telling": 5000,
      "Ġperiods": 5001,
      "Ġwalk": 5002,
      "Ġreplace": 5003,
      "ieties": 5004,
      "Ġinteresting": 5005,
      "Ġplaced": 5006,
      "Ġmedicine": 5007,
      "Ġmouth": 5008,
      "Ġ2008": 5009,
      "Ġconfidence": 5010,
      "Ġanxiety": 5011,
      "arter": 5012,
      "ĠBro": 5013,
      "Ġexchange": 5014,
      "Ġproviders": 5015,
      "Ġ195": 5016,
      "ĠRev": 5017,
      "itage": 5018,
      "oli": 5019,
      "rogen": 5020,
      "ĠCong": 5021,
      "Ġrule": 5022,
      "Ġexcellent": 5023,
      "olved": 5024,
      "Ġbeautiful": 5025,
      "Ġcook": 5026,
      "ĠPort": 5027,
      "aughter": 5028,
      "Ġcurrently": 5029,
      "Ġrestaur": 5030,
      "Ġencompass": 5031,
      "Ġclinical": 5032,
      "tition": 5033,
      "ĠLearning": 5034,
      "ij": 5035,
      "Ġillness": 5036,
      "acies": 5037,
      "âĢ¢": 5038,
      "hema": 5039,
      "Ġemergency": 5040,
      "199": 5041,
      "Ġlegis": 5042,
      "Ġteeth": 5043,
      "abetes": 5044,
      "otyp": 5045,
      "astly": 5046,
      "Ġfunctionality": 5047,
      "Ġcontributes": 5048,
      "OS": 5049,
      "inf": 5050,
      "eling": 5051,
      "met": 5052,
      "Ġstrengthen": 5053,
      "bit": 5054,
      "ĠSum": 5055,
      "Ġagg": 5056,
      "Ġimplementation": 5057,
      "Ġhit": 5058,
      "Ġchance": 5059,
      "Ġfactor": 5060,
      "Ġgender": 5061,
      "Ġreson": 5062,
      "Ġjournal": 5063,
      "Ġviolence": 5064,
      "ĠRegular": 5065,
      "ĠFound": 5066,
      "ĠAssess": 5067,
      "ĠWestern": 5068,
      "Ġoperation": 5069,
      "bility": 5070,
      "clusive": 5071,
      "Des": 5072,
      "ycl": 5073,
      "co": 5074,
      "Ġcompetition": 5075,
      "ĠBel": 5076,
      "Ġfruit": 5077,
      "Ġopening": 5078,
      "ÃŃ": 5079,
      "Ġmiles": 5080,
      "ĠCollege": 5081,
      "Ġyes": 5082,
      "Ġinjury": 5083,
      "ygen": 5084,
      "emy": 5085,
      "Ġextensive": 5086,
      "Ġsubs": 5087,
      "ĠSpanish": 5088,
      "Ġrespective": 5089,
      "Ġfacilitate": 5090,
      "lor": 5091,
      "These": 5092,
      "Ġnarratives": 5093,
      "ĠDecember": 5094,
      "ellect": 5095,
      "olve": 5096,
      "Ġassessment": 5097,
      "ica": 5098,
      "can": 5099,
      "ĠJames": 5100,
      "ĠPaul": 5101,
      "Ġheard": 5102,
      "icial": 5103,
      "iday": 5104,
      "Ġencourages": 5105,
      "Ġcoord": 5106,
      "ĠIsrael": 5107,
      "ĠSch": 5108,
      "iability": 5109,
      "Ġminor": 5110,
      "ĠGoogle": 5111,
      "Ġexactly": 5112,
      "Ġpal": 5113,
      "Ġevolving": 5114,
      "ifications": 5115,
      "ID": 5116,
      "Ð¾Ð": 5117,
      "omy": 5118,
      "Ġhelping": 5119,
      "Ġinsurance": 5120,
      "Ġvot": 5121,
      "apers": 5122,
      "ĠTur": 5123,
      "ĠNovember": 5124,
      "ta": 5125,
      "Ġexciting": 5126,
      "Ġconnected": 5127,
      "Ġinherent": 5128,
      "Ġcorpor": 5129,
      "ĠBi": 5130,
      "Ġvibr": 5131,
      "rative": 5132,
      "atically": 5133,
      "Ġtruth": 5134,
      "ĠArch": 5135,
      "Ġsustainability": 5136,
      "ticle": 5137,
      "faces": 5138,
      "Ġlayer": 5139,
      "ĠLa": 5140,
      "Ġdegree": 5141,
      "Ġadvancements": 5142,
      "ĠGiven": 5143,
      "Ġspect": 5144,
      "Ġmobile": 5145,
      "Ġprogramming": 5146,
      "Ġstim": 5147,
      "Ġfunctional": 5148,
      "ĠBack": 5149,
      "Ġplease": 5150,
      "Ġoverl": 5151,
      "ĠDavid": 5152,
      "Ġeight": 5153,
      "ĠFeb": 5154,
      "orith": 5155,
      "icious": 5156,
      "Ġlic": 5157,
      "Ġdom": 5158,
      "Ġaffecting": 5159,
      "Ġactual": 5160,
      "Ġleaving": 5161,
      "ĠGermany": 5162,
      "ĠMal": 5163,
      "Ġaims": 5164,
      "icit": 5165,
      "Ġcoming": 5166,
      "Ġformat": 5167,
      "Ġdemonstrate": 5168,
      "Ġdrugs": 5169,
      "IT": 5170,
      "Ġorganic": 5171,
      "Ġmatch": 5172,
      "ĠSy": 5173,
      "Ġslight": 5174,
      "lig": 5175,
      "Ġsmart": 5176,
      "ĠChallen": 5177,
      "Ġtrig": 5178,
      "ĠLife": 5179,
      "wood": 5180,
      "Ġisol": 5181,
      "Ġdirection": 5182,
      "ĠDist": 5183,
      "ĠGeneral": 5184,
      "ĠTest": 5185,
      "Ġfigure": 5186,
      "Ġentertain": 5187,
      "Ġmovements": 5188,
      "Ġprepared": 5189,
      "omas": 5190,
      "ogen": 5191,
      "ira": 5192,
      "Here": 5193,
      "edia": 5194,
      "ĠØ": 5195,
      "Ġscene": 5196,
      "Ġfeeling": 5197,
      "Ġtreatments": 5198,
      "Ġspiritual": 5199,
      "Ġbillion": 5200,
      "omestic": 5201,
      "Ġvoice": 5202,
      "ĠSal": 5203,
      "Ġpul": 5204,
      "Ġdram": 5205,
      "Ġcontract": 5206,
      "ossible": 5207,
      "rite": 5208,
      "Ġdu": 5209,
      "Ġkeeping": 5210,
      "Ġfemale": 5211,
      "EN": 5212,
      "Ġ23": 5213,
      "Ġmitig": 5214,
      "Ġclub": 5215,
      "mitted": 5216,
      "urren": 5217,
      "tors": 5218,
      "Ġisland": 5219,
      "Ġscenarios": 5220,
      "Ġselecting": 5221,
      "Ġboard": 5222,
      "Ġformation": 5223,
      "ruary": 5224,
      "ste": 5225,
      "ĠMet": 5226,
      "Ġsole": 5227,
      "Ġ22": 5228,
      "Ġcompet": 5229,
      "Ġpresents": 5230,
      "Ġserved": 5231,
      "ums": 5232,
      "Ġscreen": 5233,
      "ĠGreen": 5234,
      "Ġahead": 5235,
      "Ġimmediately": 5236,
      "fulness": 5237,
      "Ġexperts": 5238,
      ".'": 5239,
      "tial": 5240,
      "Ġgenerations": 5241,
      "Ġroll": 5242,
      "Ġourselves": 5243,
      "forcement": 5244,
      "ĠAssociation": 5245,
      "Ġphone": 5246,
      "Ġblue": 5247,
      "enty": 5248,
      "mal": 5249,
      "ĠClass": 5250,
      "Ġintegrating": 5251,
      "Ġrevolution": 5252,
      "Ġecosystem": 5253,
      "Ġsave": 5254,
      "Ġdisorders": 5255,
      "Ġpoly": 5256,
      "Ġprecise": 5257,
      "Ġsem": 5258,
      "Ġdomin": 5259,
      "Ġeasier": 5260,
      "Ġaid": 5261,
      "avigating": 5262,
      "tering": 5263,
      "Ġperspectives": 5264,
      "Ġcompletely": 5265,
      "asp": 5266,
      "PS": 5267,
      "Ġidentifying": 5268,
      "ĠTechniques": 5269,
      "Ġbacteria": 5270,
      "ĠProcess": 5271,
      "Ġworked": 5272,
      "ĠInformation": 5273,
      "Ġestate": 5274,
      "Ġdream": 5275,
      "Ġintroduced": 5276,
      "ĠService": 5277,
      "Ġresponses": 5278,
      "ĠPractical": 5279,
      "ĠJournal": 5280,
      "ube": 5281,
      "Ġflexibility": 5282,
      "ĠBrit": 5283,
      "ĠPeople": 5284,
      "Ġnavigating": 5285,
      "Ġsummary": 5286,
      "ĠSee": 5287,
      "Ġminimize": 5288,
      "ĠMary": 5289,
      "Ġdecades": 5290,
      "ĠBas": 5291,
      "ĠTex": 5292,
      "ention": 5293,
      "Ġassistance": 5294,
      "Ġdelivery": 5295,
      "Ġconv": 5296,
      "Ġwanted": 5297,
      "cks": 5298,
      "Ġattract": 5299,
      "Ġcrypt": 5300,
      "eless": 5301,
      "70": 5302,
      "Ġconsideration": 5303,
      "Ġemployed": 5304,
      "ultaneously": 5305,
      "ĠInf": 5306,
      "Ġfellow": 5307,
      "aint": 5308,
      "ĠHIV": 5309,
      "Please": 5310,
      "Ġready": 5311,
      "Ġ193": 5312,
      "ida": 5313,
      "Ġpick": 5314,
      "Ġcolors": 5315,
      "rors": 5316,
      "Ġmagn": 5317,
      "Ġcrafts": 5318,
      "vious": 5319,
      "while": 5320,
      "ĠWhether": 5321,
      "ffee": 5322,
      "ĠPost": 5323,
      "Ġcultures": 5324,
      "Ġrealm": 5325,
      "Ġsector": 5326,
      "ĠHuman": 5327,
      "istan": 5328,
      "Ġbus": 5329,
      "AM": 5330,
      "otion": 5331,
      "Ġadequ": 5332,
      "ĠExploring": 5333,
      "Ġobst": 5334,
      "Ġwinter": 5335,
      "Ġsuc": 5336,
      "Ġcompati": 5337,
      "part": 5338,
      "ĠPlay": 5339,
      "gery": 5340,
      "Ġround": 5341,
      "Ġrh": 5342,
      "Ġcoop": 5343,
      "Ġclearly": 5344,
      "Ġchosen": 5345,
      "Ġthousands": 5346,
      "Ġunders": 5347,
      "ocol": 5348,
      "Ġbasis": 5349,
      "Ġ2017": 5350,
      "raf": 5351,
      "ĠSam": 5352,
      "Ġleader": 5353,
      "ĠJust": 5354,
      "ael": 5355,
      "Ġ2007": 5356,
      "ĠIS": 5357,
      "Ġnotes": 5358,
      "Ġimmune": 5359,
      "After": 5360,
      "ĠTwo": 5361,
      "eding": 5362,
      "ĠSci": 5363,
      "Ġstages": 5364,
      "Ġtemperatures": 5365,
      "Ġhomes": 5366,
      "Ġgave": 5367,
      "ĠBet": 5368,
      "Ġadver": 5369,
      "ether": 5370,
      "Ġasking": 5371,
      "Ġ60": 5372,
      "Ġsam": 5373,
      "ĠEven": 5374,
      "Ġlens": 5375,
      "Ġlifest": 5376,
      "Ġindustrial": 5377,
      "Ġrecognize": 5378,
      "ded": 5379,
      "Ġinteraction": 5380,
      "mp": 5381,
      "ĠRead": 5382,
      "ĠSign": 5383,
      "cont": 5384,
      "Ġdisru": 5385,
      "ĠSte": 5386,
      "eles": 5387,
      "Ġsimpl": 5388,
      "ashion": 5389,
      "Ġcritic": 5390,
      "ĠDig": 5391,
      "Ġspecialized": 5392,
      "Ġwellbeing": 5393,
      "Ġletter": 5394,
      "Ġsymbol": 5395,
      "Ġdistance": 5396,
      "Ġchapter": 5397,
      "Ġcrop": 5398,
      "Ġrecognition": 5399,
      "Ġriver": 5400,
      "ago": 5401,
      "Ġdrawing": 5402,
      "Ph": 5403,
      "Ġintended": 5404,
      "ĠRemember": 5405,
      "Ġphenomen": 5406,
      "ĠBre": 5407,
      "Ġspeech": 5408,
      "Ġjustice": 5409,
      "iling": 5410,
      "Ġconfig": 5411,
      "Ġrace": 5412,
      "Ġfirm": 5413,
      "ĠSuccess": 5414,
      "Ġinstitution": 5415,
      "Ġdisapp": 5416,
      "Ġpremise": 5417,
      "oma": 5418,
      "Ġnegoti": 5419,
      "Ġdrin": 5420,
      "Ġexpans": 5421,
      "EC": 5422,
      "Ġfamous": 5423,
      "Ġremote": 5424,
      "Ġphilosoph": 5425,
      "ĠEg": 5426,
      "utive": 5427,
      "Ġbegins": 5428,
      "Ġspent": 5429,
      "Ġpreviously": 5430,
      "orrow": 5431,
      "Ġfosters": 5432,
      "Ġvehicles": 5433,
      "Ġdefin": 5434,
      "EO": 5435,
      "rated": 5436,
      "arity": 5437,
      "Some": 5438,
      "Ġmuscle": 5439,
      "Ġprices": 5440,
      "Ġfilled": 5441,
      "ĠRich": 5442,
      "Ġarrange": 5443,
      "Based": 5444,
      "Ġ28": 5445,
      "rome": 5446,
      "Ġparent": 5447,
      "ĠWell": 5448,
      "Ġbaby": 5449,
      "Have": 5450,
      "Ġlanguages": 5451,
      "BC": 5452,
      "Ġbudget": 5453,
      "Ġattrac": 5454,
      "Ġtrou": 5455,
      "otal": 5456,
      "gra": 5457,
      "Ġpassed": 5458,
      "Ġreliable": 5459,
      "Ġbeliefs": 5460,
      "Ġnative": 5461,
      "Ġthoughts": 5462,
      "ĠCommunity": 5463,
      "ĠWork": 5464,
      "ibl": 5465,
      "Ġgun": 5466,
      "Ġtaste": 5467,
      "inger": 5468,
      "respond": 5469,
      "Ġremark": 5470,
      "Ġcreates": 5471,
      "Ġalgorith": 5472,
      "Ġpregn": 5473,
      "Com": 5474,
      "Ġmedium": 5475,
      "Ġgets": 5476,
      "inated": 5477,
      "Ġcovered": 5478,
      "Ġanyone": 5479,
      "ĠFuture": 5480,
      "Ġtransition": 5481,
      "ixt": 5482,
      "Ġemissions": 5483,
      "Ġreb": 5484,
      "roy": 5485,
      "Ġintervention": 5486,
      "Ġnotable": 5487,
      "Ġdatab": 5488,
      "Ġkilled": 5489,
      "Ġfiles": 5490,
      "Ġsand": 5491,
      "AP": 5492,
      "lishing": 5493,
      "Ġregulatory": 5494,
      "Ġwidely": 5495,
      "Ġcombined": 5496,
      "ript": 5497,
      "Ġversati": 5498,
      "ription": 5499,
      "Ġthreats": 5500,
      "Ġguarant": 5501,
      "Ġeffectiveness": 5502,
      "Ġdistribut": 5503,
      "Ġtelev": 5504,
      "ĠGre": 5505,
      "Ġconventional": 5506,
      "ĠAlso": 5507,
      "Ġhighest": 5508,
      "Ġsample": 5509,
      "Ġbehaviors": 5510,
      "ĠEncouraging": 5511,
      "ĠCustom": 5512,
      "Ġseven": 5513,
      "Ġplanet": 5514,
      "Ġencouraging": 5515,
      "Ġstudying": 5516,
      "rapy": 5517,
      "Ġbrief": 5518,
      "ulous": 5519,
      "EM": 5520,
      "Ġwealth": 5521,
      "Ġfailure": 5522,
      "ya": 5523,
      "ĠDiscuss": 5524,
      "Ġclaims": 5525,
      "Ġdie": 5526,
      "ĠArts": 5527,
      "agine": 5528,
      "Ġcognitive": 5529,
      "Ġagencies": 5530,
      "roduce": 5531,
      "Ġmist": 5532,
      "brace": 5533,
      "enefits": 5534,
      "Ġ2000": 5535,
      "Ġremove": 5536,
      "Ġdecided": 5537,
      "Ġoxygen": 5538,
      "Ġneu": 5539,
      "ĠGuid": 5540,
      "ĠHol": 5541,
      "vis": 5542,
      "alk": 5543,
      "ĠWhy": 5544,
      "Ġbank": 5545,
      "Ġhop": 5546,
      "hors": 5547,
      "umes": 5548,
      "Ġserving": 5549,
      "Ġreferred": 5550,
      "ĠDespite": 5551,
      "Moreover": 5552,
      "Ġaccompl": 5553,
      "Ġattend": 5554,
      "Ġrapidly": 5555,
      "Ġiron": 5556,
      "Ġotherwise": 5557,
      "ĠMusic": 5558,
      "erge": 5559,
      "Ġsaying": 5560,
      "Ġwitness": 5561,
      "Ġfreedom": 5562,
      "ĠSea": 5563,
      "ĠAsia": 5564,
      "Ġwife": 5565,
      "Ġcomplexity": 5566,
      "Ġsessions": 5567,
      "Ġpainting": 5568,
      "Ġbrother": 5569,
      "ĠFact": 5570,
      "Ġrelatively": 5571,
      "ĠWhite": 5572,
      "Ġinterven": 5573,
      "Ġtransparency": 5574,
      "taining": 5575,
      "Ġcontaining": 5576,
      "Ġseemingly": 5577,
      "ĠGreek": 5578,
      "Ġcampaigns": 5579,
      "Ġdevelopments": 5580,
      "pting": 5581,
      "Ġprioriti": 5582,
      "ĠFood": 5583,
      "Ġuns": 5584,
      "Ġlimitations": 5585,
      "ĠCentral": 5586,
      "inding": 5587,
      "Ġempathy": 5588,
      "Ġtissue": 5589,
      "Ġ2006": 5590,
      "Ġstraight": 5591,
      "ĠApplications": 5592,
      "ero": 5593,
      "ĠTime": 5594,
      "Ġmotor": 5595,
      "Ġsuccessfully": 5596,
      "ari": 5597,
      "Ġ2018": 5598,
      "Ġlocations": 5599,
      "ĠOnline": 5600,
      "Ġengineering": 5601,
      "ĠMount": 5602,
      "ĠTre": 5603,
      "ĠPot": 5604,
      "Ġalcohol": 5605,
      "uine": 5606,
      "Ġyield": 5607,
      "Ġsexual": 5608,
      "Ġcombination": 5609,
      "Ġwebsites": 5610,
      "Ġoutd": 5611,
      "ĠSimilarly": 5612,
      "uous": 5613,
      "Ġspot": 5614,
      "Ġunits": 5615,
      "Ġment": 5616,
      "crib": 5617,
      "ĠSen": 5618,
      "Ġintegrity": 5619,
      "Ġchronic": 5620,
      "Ġ`": 5621,
      "Sh": 5622,
      "ulf": 5623,
      "ĠGeorge": 5624,
      "Ġmeets": 5625,
      "Ġrecovery": 5626,
      "Ġconfirm": 5627,
      "ĠDNA": 5628,
      "ĠSl": 5629,
      "Ġfr": 5630,
      "onents": 5631,
      "Understanding": 5632,
      "Ġchanged": 5633,
      "Ġclient": 5634,
      "Ġattacks": 5635,
      "ĠServices": 5636,
      "ĠEth": 5637,
      "roph": 5638,
      "Ġadds": 5639,
      "29": 5640,
      "anted": 5641,
      "ĠPhys": 5642,
      "Ġ26": 5643,
      "Ġsocietal": 5644,
      "Ġencount": 5645,
      "chain": 5646,
      "Ġwest": 5647,
      "ny": 5648,
      "Ġsubstantial": 5649,
      "Ġ...": 5650,
      "Ġhappen": 5651,
      "cription": 5652,
      "astern": 5653,
      "Ġannual": 5654,
      "ĠCB": 5655,
      "Ġexercises": 5656,
      "Ġrelax": 5657,
      "rieved": 5658,
      "à¥": 5659,
      "ĠCam": 5660,
      "ĠĠĠ": 5661,
      "ĠFebruary": 5662,
      "27": 5663,
      "Ġachieving": 5664,
      "Ġpassion": 5665,
      "Ġreference": 5666,
      "Ġcopy": 5667,
      "Ġwear": 5668,
      "Ġinterested": 5669,
      "Ġpreserving": 5670,
      "za": 5671,
      "Ġshift": 5672,
      "erb": 5673,
      "gets": 5674,
      "Ġalternatives": 5675,
      "Ġdefined": 5676,
      "othing": 5677,
      "Ġmajority": 5678,
      "Ġhappens": 5679,
      "Ġradio": 5680,
      "Ġcommunic": 5681,
      "DA": 5682,
      "Ġmorning": 5683,
      "Ġrequest": 5684,
      "ellectual": 5685,
      "ĠGroup": 5686,
      "apping": 5687,
      "Ġmatters": 5688,
      "26": 5689,
      "ĠTer": 5690,
      "Ġhttp": 5691,
      "ĠEstab": 5692,
      "Ġloyal": 5693,
      "Ġunw": 5694,
      "ipping": 5695,
      "Â°": 5696,
      "Ġmoist": 5697,
      "no": 5698,
      "ceptions": 5699,
      "ĠMicro": 5700,
      "ĠPoli": 5701,
      "Ġwall": 5702,
      "Ġtit": 5703,
      "ĠRober": 5704,
      "ĠModern": 5705,
      "Ġrecommended": 5706,
      "ĠControl": 5707,
      "Ġfocuses": 5708,
      "ears": 5709,
      "Ġviews": 5710,
      "'.": 5711,
      "Ġ27": 5712,
      "Ġfigures": 5713,
      "Firstly": 5714,
      "ĠMedic": 5715,
      "àª": 5716,
      "Ġclasses": 5717,
      "Ġinvesting": 5718,
      "itz": 5719,
      "iosity": 5720,
      "ĠSociety": 5721,
      "Ġinitially": 5722,
      "neys": 5723,
      "Ġcycle": 5724,
      "mas": 5725,
      "Ġpositions": 5726,
      "ocking": 5727,
      "Ġcorrespond": 5728,
      "Ġindicates": 5729,
      "Ġrenew": 5730,
      "Ġcontributions": 5731,
      "ava": 5732,
      "Ġcloud": 5733,
      "Trans": 5734,
      "Ġlinked": 5735,
      "Ġtells": 5736,
      "unte": 5737,
      "unately": 5738,
      "ault": 5739,
      "ĠContext": 5740,
      "Ġacknowled": 5741,
      "Ġmanip": 5742,
      "Ġtradition": 5743,
      "Ġtraditions": 5744,
      "Ġamounts": 5745,
      "ĠDi": 5746,
      "Ġmoved": 5747,
      "Ġcharge": 5748,
      "ns": 5749,
      "Ġobserved": 5750,
      "xic": 5751,
      "Ġbattle": 5752,
      "unk": 5753,
      "ĠVol": 5754,
      "ĠTravel": 5755,
      "Ġparticipation": 5756,
      "lar": 5757,
      "Ġfacing": 5758,
      "Ġofficials": 5759,
      "Ġign": 5760,
      "ressed": 5761,
      "ria": 5762,
      "ourses": 5763,
      "Ġregularly": 5764,
      "Ġmilk": 5765,
      "free": 5766,
      "Ġdiscussed": 5767,
      "Ġadvice": 5768,
      "Ġcategories": 5769,
      "ĠRussian": 5770,
      "Ġvac": 5771,
      "Ġeast": 5772,
      "Ġutilizing": 5773,
      "bed": 5774,
      "à¦": 5775,
      "Ġmoments": 5776,
      "Ġresolution": 5777,
      "Ġturned": 5778,
      "Ġinjuries": 5779,
      "28": 5780,
      "Ġapplying": 5781,
      "Ġchoosing": 5782,
      "late": 5783,
      "Ġsounds": 5784,
      "timate": 5785,
      "US": 5786,
      "ĠArab": 5787,
      "Ġban": 5788,
      "AL": 5789,
      "Ġcast": 5790,
      "Given": 5791,
      "Ġproductivity": 5792,
      "rian": 5793,
      "ĠKeep": 5794,
      "Ġhighlighting": 5795,
      "Ġcomposition": 5796,
      "Ġpartnerships": 5797,
      "Ġdomestic": 5798,
      "Ġconducted": 5799,
      "Ġindicate": 5800,
      "Ġtelevision": 5801,
      "Ġhidden": 5802,
      "Ġqualities": 5803,
      "Ġplastic": 5804,
      "Ġtranslation": 5805,
      "ĠMo": 5806,
      "Ġbirds": 5807,
      "Ġmerely": 5808,
      "field": 5809,
      "unting": 5810,
      "Ġreflec": 5811,
      "hand": 5812,
      "Ġliquid": 5813,
      "Ġconcerning": 5814,
      "riage": 5815,
      "Ġlayers": 5816,
      "Ġdemonstrated": 5817,
      "Ġevaluation": 5818,
      "unning": 5819,
      "Ġcompelling": 5820,
      "Ġcraft": 5821,
      "Ġkid": 5822,
      "Ġtransformation": 5823,
      "nic": 5824,
      "Ġboost": 5825,
      "Ġperformed": 5826,
      "uit": 5827,
      "Ġsimultaneously": 5828,
      "friendly": 5829,
      "Ġselect": 5830,
      "Ġranging": 5831,
      "Ġvent": 5832,
      "Ġmessages": 5833,
      "Ġaccordingly": 5834,
      "Ġbelieved": 5835,
      "Ġcomment": 5836,
      "ictures": 5837,
      "ET": 5838,
      "Ġnecessit": 5839,
      "Ġdiabetes": 5840,
      "Ġraw": 5841,
      "Ġrot": 5842,
      "agers": 5843,
      "ĠProper": 5844,
      "Ġresidents": 5845,
      "'m": 5846,
      "Ġreduces": 5847,
      "Ġcompliance": 5848,
      "Ġfeat": 5849,
      "Ġgenuine": 5850,
      "gi": 5851,
      "].": 5852,
      "Ġproducing": 5853,
      "Ġauthority": 5854,
      "prise": 5855,
      "Ġsides": 5856,
      "uts": 5857,
      "Ġpartners": 5858,
      "ĠSecond": 5859,
      "ht": 5860,
      "Ġexceptional": 5861,
      "Ġadhere": 5862,
      "Ġaccuracy": 5863,
      "Ġmaximum": 5864,
      "Ġfelt": 5865,
      "Ġpossibilities": 5866,
      "ĠRelations": 5867,
      "ĠStand": 5868,
      "Ġvolume": 5869,
      "Ġic": 5870,
      "Ġexperim": 5871,
      "ĠSecurity": 5872,
      "Ġchain": 5873,
      "Ġgrand": 5874,
      "Ġhospital": 5875,
      "Ġwel": 5876,
      "Ġ<": 5877,
      "Ġnuclear": 5878,
      "Ġdiscussing": 5879,
      "ĠJewish": 5880,
      "uted": 5881,
      "Ġpresident": 5882,
      "Ġwonder": 5883,
      "Ġshowed": 5884,
      "Ġbarriers": 5885,
      "Ġbrings": 5886,
      "Ġcalls": 5887,
      "Ġreduction": 5888,
      "Ġdogs": 5889,
      "Ġbuildings": 5890,
      "ĠStudies": 5891,
      "appy": 5892,
      "Ġminimizing": 5893,
      "Ġglob": 5894,
      "Ġadministration": 5895,
      "Ġaccessibility": 5896,
      "tee": 5897,
      "Ġdrop": 5898,
      "Ġenhances": 5899,
      "Ġdental": 5900,
      "nam": 5901,
      "ficial": 5902,
      "Ġderived": 5903,
      "Ġvisitors": 5904,
      "ĠFranc": 5905,
      "ĠKore": 5906,
      "âĢĿ.": 5907,
      "riting": 5908,
      "ĠMean": 5909,
      "tes": 5910,
      "Ġauthorities": 5911,
      "Ġexcessive": 5912,
      "Ġantib": 5913,
      "ĠLook": 5914,
      "asure": 5915,
      "Res": 5916,
      "Ġpages": 5917,
      "Ġinspiration": 5918,
      "entence": 5919,
      "Ġcoffee": 5920,
      "Ġcrisis": 5921,
      "Ġimmediate": 5922,
      "acles": 5923,
      "assion": 5924,
      "den": 5925,
      "Ġoutl": 5926,
      "ĠAppro": 5927,
      "Ġinteract": 5928,
      "ocurren": 5929,
      "Ġfulf": 5930,
      "Ġbreast": 5931,
      "Ġupdates": 5932,
      "90": 5933,
      "Ġthick": 5934,
      "igen": 5935,
      "Ġhelped": 5936,
      "Ġsuitable": 5937,
      "west": 5938,
      "ĠExt": 5939,
      "ĠConsequently": 5940,
      "ulum": 5941,
      "Ġlisten": 5942,
      "Ġcategory": 5943,
      "Ġdisorder": 5944,
      "Ġpreparation": 5945,
      "uses": 5946,
      "edge": 5947,
      "lean": 5948,
      "ĠElect": 5949,
      "Ġevaluate": 5950,
      "Ġpredic": 5951,
      "Ġstaying": 5952,
      "Ġmale": 5953,
      "Ġmotion": 5954,
      "Äĥ": 5955,
      "Ġfaster": 5956,
      "Ġharness": 5957,
      "ĠCouncil": 5958,
      "Ġhabits": 5959,
      "dis": 5960,
      "cast": 5961,
      "izations": 5962,
      "Ġreserv": 5963,
      "Ġmutual": 5964,
      "Ġtap": 5965,
      "ĠKnow": 5966,
      "Ġstorytelling": 5967,
      "ĠEnergy": 5968,
      "uct": 5969,
      "ĠFore": 5970,
      "ĠBecause": 5971,
      "Ġinflamm": 5972,
      "Ġintroduction": 5973,
      "Ġassist": 5974,
      "ĠClin": 5975,
      "Ġlandscapes": 5976,
      "Ġclassroom": 5977,
      "ĠBenefits": 5978,
      "Ġroutine": 5979,
      "Ġlever": 5980,
      "ĠLim": 5981,
      "ersection": 5982,
      "Ġocean": 5983,
      "ĠGovernment": 5984,
      "ĠConsiderations": 5985,
      "Ġsweet": 5986,
      "ĠCourt": 5987,
      "ĠImpro": 5988,
      "Ġdoub": 5989,
      "eters": 5990,
      "Ġconstit": 5991,
      "Ġrul": 5992,
      "Ġdemonstrates": 5993,
      "Ġstic": 5994,
      "Ġtrain": 5995,
      "Through": 5996,
      "ĠSun": 5997,
      "Ġarm": 5998,
      "ĠTexas": 5999,
      "Ġjoint": 6000,
      "Ġundersc": 6001,
      "Ġforest": 6002,
      "rovers": 6003,
      "tile": 6004,
      "Ġdocuments": 6005,
      "ado": 6006,
      "ĠAcad": 6007,
      "uis": 6008,
      "Ġburn": 6009,
      "ĠDif": 6010,
      "Ġdepression": 6011,
      "Ġmap": 6012,
      "Ġexpert": 6013,
      "ĠIsland": 6014,
      "ander": 6015,
      "ĠYes": 6016,
      "Ġspring": 6017,
      "Ġstring": 6018,
      "egu": 6019,
      "Ġdiam": 6020,
      "Ġyouth": 6021,
      "Ġkn": 6022,
      "Ġconscious": 6023,
      "itis": 6024,
      "Ġsubjects": 6025,
      "char": 6026,
      "des": 6027,
      "ĠInternet": 6028,
      "Ġrac": 6029,
      "Ġsolve": 6030,
      "Ġ)": 6031,
      "ĠMem": 6032,
      "Ġ2005": 6033,
      "Ġkill": 6034,
      "Ġflavor": 6035,
      "Ġmer": 6036,
      "ĠUN": 6037,
      "Ġlatest": 6038,
      "Ġconnect": 6039,
      "ĠRussia": 6040,
      "Ġinternet": 6041,
      "roid": 6042,
      "Question": 6043,
      "ographical": 6044,
      "sequent": 6045,
      "opping": 6046,
      "Ġnations": 6047,
      "agon": 6048,
      "ato": 6049,
      "icing": 6050,
      "prene": 6051,
      "Ġlux": 6052,
      "ĠBest": 6053,
      "Ġextended": 6054,
      "ĠAtl": 6055,
      "well": 6056,
      "Ġacts": 6057,
      "Ġconsists": 6058,
      "Ġshed": 6059,
      "Ġphase": 6060,
      "fication": 6061,
      "reprene": 6062,
      "ĠLead": 6063,
      "Ġera": 6064,
      "band": 6065,
      "Ġthr": 6066,
      "à®": 6067,
      "Ġgarden": 6068,
      "Ġrepresentation": 6069,
      "rint": 6070,
      "MS": 6071,
      "Ġstands": 6072,
      "ĠEvery": 6073,
      "Ġstation": 6074,
      "Ġholds": 6075,
      "rum": 6076,
      "Ġengaged": 6077,
      ".;": 6078,
      "Ġdoll": 6079,
      "35": 6080,
      "ĠTH": 6081,
      "ologists": 6082,
      "ĠWind": 6083,
      "la": 6084,
      "Ġadult": 6085,
      "ĠRetrieved": 6086,
      "Ġconversation": 6087,
      "oral": 6088,
      "Ã³": 6089,
      ",'": 6090,
      "arsh": 6091,
      "ticing": 6092,
      "ĠGold": 6093,
      "Ġaccounts": 6094,
      "Ġrevenue": 6095,
      "Ġdirector": 6096,
      "VID": 6097,
      "racy": 6098,
      "Ġfab": 6099,
      "Ġinstructions": 6100,
      "Ġcurric": 6101,
      "Ġassets": 6102,
      "ounter": 6103,
      "udes": 6104,
      "Ġreligion": 6105,
      "ĠLou": 6106,
      "Ġpreventing": 6107,
      "Ã¶": 6108,
      "Ġproposed": 6109,
      "ĠOld": 6110,
      "Ġelectronic": 6111,
      "outs": 6112,
      "ĠChallenges": 6113,
      "edy": 6114,
      "ĠSystems": 6115,
      "Ġenthusiasts": 6116,
      "Ġdouble": 6117,
      "Ġrecommendations": 6118,
      "netic": 6119,
      "estiv": 6120,
      "Ġrati": 6121,
      "fici": 6122,
      "Ġpsychological": 6123,
      "Ġattempt": 6124,
      "Ġinvestigation": 6125,
      "Ġarticles": 6126,
      "Ġsoc": 6127,
      "asive": 6128,
      "rating": 6129,
      "Ġrating": 6130,
      "umin": 6131,
      "Ġsell": 6132,
      "Ġaren": 6133,
      "ĠIslam": 6134,
      "Ġprofound": 6135,
      "Ġlived": 6136,
      "ĠTrump": 6137,
      "Ġcuriosity": 6138,
      "hetic": 6139,
      "Ġbow": 6140,
      "Ġintricacies": 6141,
      "Example": 6142,
      "Ġsettle": 6143,
      "All": 6144,
      "Ġhousehold": 6145,
      "Ġconsistency": 6146,
      "Acc": 6147,
      "ĠSupport": 6148,
      "Ġhappy": 6149,
      "ĠItalian": 6150,
      "Ġwhom": 6151,
      "Ġâ": 6152,
      "Ġprove": 6153,
      "Ġrain": 6154,
      "Ġvegetables": 6155,
      "Ġexplicit": 6156,
      "Ġformal": 6157,
      "win": 6158,
      "Ġstronger": 6159,
      "Ġscholars": 6160,
      "Ġheavily": 6161,
      "backs": 6162,
      "Ġgoods": 6163,
      "ĠMag": 6164,
      "ĠContin": 6165,
      "Ġdiving": 6166,
      "anch": 6167,
      "ĠBay": 6168,
      "ĠUltimately": 6169,
      "ĠEarly": 6170,
      "ĠBritain": 6171,
      "Ġdeeply": 6172,
      "Ġfavorite": 6173,
      "Ġremaining": 6174,
      "alse": 6175,
      "Ġju": 6176,
      "Ġimagine": 6177,
      "Ġconservation": 6178,
      "ĠDigital": 6179,
      "ĠEconom": 6180,
      "Ġbottom": 6181,
      "Ġlasting": 6182,
      "Ġequation": 6183,
      "Ġsupports": 6184,
      "Ġvibrant": 6185,
      "Ġmeat": 6186,
      "Ġrecognized": 6187,
      "Ġgovernments": 6188,
      "ĠEmer": 6189,
      "Ġtips": 6190,
      "ĠDirect": 6191,
      "istent": 6192,
      "berg": 6193,
      "ĠPhil": 6194,
      "ĠMake": 6195,
      "Ġdealing": 6196,
      "Ġwine": 6197,
      "Ġfacts": 6198,
      "Ġimmig": 6199,
      "Ġpositively": 6200,
      "Ġfunding": 6201,
      "Ġshoot": 6202,
      "Ġintrig": 6203,
      "stream": 6204,
      "Ġadequate": 6205,
      "Ġgirl": 6206,
      "Ġgenerated": 6207,
      "Ġnotice": 6208,
      "Ġmemor": 6209,
      "ĠIdentifying": 6210,
      "Ġlifestyle": 6211,
      "ĠTips": 6212,
      "ĠMiss": 6213,
      "Ġcenturies": 6214,
      "Ġculinary": 6215,
      "Ġinfluences": 6216,
      "ka": 6217,
      "Ġwhereas": 6218,
      "agues": 6219,
      "Ġsen": 6220,
      "ĠLong": 6221,
      "Ġscr": 6222,
      "Ġgradu": 6223,
      "Ġauthors": 6224,
      "Ġtranslate": 6225,
      "Ġ80": 6226,
      "ĠSafety": 6227,
      "Ġsolely": 6228,
      "Ġtex": 6229,
      "Ġstars": 6230,
      "Ġhealing": 6231,
      "arp": 6232,
      "prof": 6233,
      "ĠStep": 6234,
      "ĠEmb": 6235,
      "Ġfrequency": 6236,
      "Ġhousing": 6237,
      "ĠEns": 6238,
      "ki": 6239,
      "amm": 6240,
      "Ġdating": 6241,
      "uls": 6242,
      "ĠBat": 6243,
      "Ġsteel": 6244,
      "ĠMexico": 6245,
      "Ġreaction": 6246,
      "Ġdelivering": 6247,
      "Ġsouthern": 6248,
      "Ġroots": 6249,
      "Ġphrase": 6250,
      "Ġraised": 6251,
      "ĠProm": 6252,
      "Ġtun": 6253,
      "ĠQue": 6254,
      "Ġwaters": 6255,
      "Ġtooth": 6256,
      "ĠIr": 6257,
      "Ġconsistently": 6258,
      "ĠAP": 6259,
      "Ġcharacterized": 6260,
      "Ġrely": 6261,
      "Ġfashion": 6262,
      "Ġefficiently": 6263,
      "ĠMac": 6264,
      "ĠAnt": 6265,
      "Ġdiscovery": 6266,
      "Ġremarkable": 6267,
      "Ġflat": 6268,
      "Ġnearby": 6269,
      "Ġpip": 6270,
      "Ġvillage": 6271,
      "lements": 6272,
      "Ġlistening": 6273,
      "Ġcrow": 6274,
      "Ġtactics": 6275,
      "Ġpray": 6276,
      "Ġpair": 6277,
      "ensus": 6278,
      "Ġuncertain": 6279,
      "ictor": 6280,
      "Ġà¤": 6281,
      "Ġimprovements": 6282,
      "Ġvarying": 6283,
      "Ġemphasizing": 6284,
      "Ġconversations": 6285,
      "Ġchances": 6286,
      "Ġmillions": 6287,
      "Ġspl": 6288,
      "ĠAlex": 6289,
      "Ġpark": 6290,
      "Ġvess": 6291,
      "ĠDiv": 6292,
      "ĠCongress": 6293,
      "Ġshowing": 6294,
      "ĠAmong": 6295,
      "Ġslightly": 6296,
      "uce": 6297,
      "expected": 6298,
      "Ġpret": 6299,
      "Ġproperly": 6300,
      "adian": 6301,
      "Ġinner": 6302,
      "ĠFre": 6303,
      "Ġdishes": 6304,
      "Ġhaz": 6305,
      "Ġconvey": 6306,
      "ĠPsych": 6307,
      "Ġcompleted": 6308,
      "Ġestimated": 6309,
      "tivating": 6310,
      "Ġmir": 6311,
      "level": 6312,
      "Ġlabel": 6313,
      "SA": 6314,
      "ship": 6315,
      "udden": 6316,
      "eal": 6317,
      "itivity": 6318,
      "ĠÙ": 6319,
      "Ġcommunicate": 6320,
      "Ġremoved": 6321,
      "Ġ29": 6322,
      "Ġtheore": 6323,
      "vantages": 6324,
      "Ġsecret": 6325,
      "VII": 6326,
      "ĠMuse": 6327,
      "Ġaccessible": 6328,
      "Ġsnow": 6329,
      "isdom": 6330,
      "Ġprepare": 6331,
      "ĠPractices": 6332,
      "Ġdin": 6333,
      "Ġstrengths": 6334,
      "enth": 6335,
      "Ġsat": 6336,
      "Ġweakness": 6337,
      "Ġofferings": 6338,
      "Ġsubsequent": 6339,
      "Ġmonitor": 6340,
      "ĠThomas": 6341,
      "Ġmanufacturers": 6342,
      "Ġtreated": 6343,
      "Ġperformances": 6344,
      "ĠGr": 6345,
      "Ġstone": 6346,
      "Ġlooks": 6347,
      "ĠCompar": 6348,
      "Ġreactions": 6349,
      "ĠHome": 6350,
      "Ġstruggle": 6351,
      "Ġfinally": 6352,
      "Ġabuse": 6353,
      "Ġsurgery": 6354,
      "Ġbone": 6355,
      "ologist": 6356,
      "ĠScot": 6357,
      "Ġelectricity": 6358,
      "Ġdescribes": 6359,
      "Ġseeds": 6360,
      "opy": 6361,
      "Ġsignal": 6362,
      "Ġpopularity": 6363,
      "otive": 6364,
      "ocols": 6365,
      "Ġhuge": 6366,
      "Ġpictures": 6367,
      "ĠMart": 6368,
      "ĠRob": 6369,
      "Ġregist": 6370,
      "45": 6371,
      "Ġreform": 6372,
      "Ġdedication": 6373,
      "Ġmanaged": 6374,
      "Ġhoriz": 6375,
      "Ġinstances": 6376,
      "Ġdistingu": 6377,
      "Ġfrag": 6378,
      "Ġdro": 6379,
      "Ġreturns": 6380,
      "igure": 6381,
      "Ġheritage": 6382,
      "Gen": 6383,
      "Ġbright": 6384,
      "ĠEss": 6385,
      "Ġ190": 6386,
      "Ġfans": 6387,
      "Ġgrass": 6388,
      "ĠTV": 6389,
      "Ġunexpected": 6390,
      "Ġstatements": 6391,
      "ports": 6392,
      "long": 6393,
      "Ġcarried": 6394,
      "Ġarchitecture": 6395,
      "road": 6396,
      "Ġload": 6397,
      "Ġminimal": 6398,
      "Ġtrip": 6399,
      "celer": 6400,
      "olute": 6401,
      "Ġsquare": 6402,
      "Ġwants": 6403,
      "Ġreached": 6404,
      "Ġintellectual": 6405,
      "Ġcoal": 6406,
      "otional": 6407,
      "Ġmathema": 6408,
      "Ġfunds": 6409,
      "ania": 6410,
      "Ġcere": 6411,
      "Ġboy": 6412,
      "AD": 6413,
      "Ġrelative": 6414,
      "Ġsalt": 6415,
      "Ġsupported": 6416,
      "lick": 6417,
      "ools": 6418,
      "Ġoral": 6419,
      "Ġprevention": 6420,
      "Ġhappened": 6421,
      "ĠFlor": 6422,
      "overning": 6423,
      "Ġprompt": 6424,
      "ĠCath": 6425,
      "ĠBeh": 6426,
      "ville": 6427,
      "ĠNavigating": 6428,
      "Ġbeneficial": 6429,
      "Ġconflicts": 6430,
      "Ġnorthern": 6431,
      "ĠMul": 6432,
      "ĠGlobal": 6433,
      "Ġtalent": 6434,
      "Ġincorporate": 6435,
      "Ġelectrical": 6436,
      "point": 6437,
      "Ġneighbor": 6438,
      "Ġpollution": 6439,
      "ĠDemoc": 6440,
      "Ġinterventions": 6441,
      "Ġsoph": 6442,
      "ĠMedical": 6443,
      "ĠLord": 6444,
      "Ġcommitted": 6445,
      "Ġflood": 6446,
      "tified": 6447,
      "Ġinfluencing": 6448,
      "Ġdangerous": 6449,
      "overty": 6450,
      "Ġparticles": 6451,
      "Ġtom": 6452,
      "Ġworksh": 6453,
      "Ġsin": 6454,
      "othe": 6455,
      "Ġanticip": 6456,
      "oding": 6457,
      "Ġfeaturing": 6458,
      "rete": 6459,
      "ĠWho": 6460,
      "Ġreputation": 6461,
      "Ġwaiting": 6462,
      "Ġequipped": 6463,
      "ST": 6464,
      "Ġopinion": 6465,
      "ĠHen": 6466,
      "Ġcleaning": 6467,
      "Ġrecorded": 6468,
      "ĠEngine": 6469,
      "Ġlaun": 6470,
      "whel": 6471,
      "Ġce": 6472,
      "Ġtrib": 6473,
      "Ġalt": 6474,
      "Ġstrict": 6475,
      "ĠDoc": 6476,
      "Ġhandle": 6477,
      "top": 6478,
      "word": 6479,
      "ĠIndust": 6480,
      "ĠEnvironmental": 6481,
      "Ġconstrain": 6482,
      "Ġcourses": 6483,
      "Ġagency": 6484,
      "Ġtypical": 6485,
      "Ġstated": 6486,
      "rier": 6487,
      "Ġreflection": 6488,
      "ĠTreat": 6489,
      "Ġoperational": 6490,
      "tians": 6491,
      "Ġquarter": 6492,
      "born": 6493,
      "Ġinsight": 6494,
      "Ġhour": 6495,
      "Ġsafegu": 6496,
      "Pl": 6497,
      "Ġneut": 6498,
      "OT": 6499,
      "Ġexposed": 6500,
      "ette": 6501,
      "Ġeggs": 6502,
      "Ġtut": 6503,
      "nti": 6504,
      "Ġhorm": 6505,
      "Ġmostly": 6506,
      "Ġtack": 6507,
      "Ġselected": 6508,
      "ĠNews": 6509,
      "Ġdisp": 6510,
      "Ġoccasion": 6511,
      "ĠEqu": 6512,
      "Ġcorrectly": 6513,
      "Ġdegrees": 6514,
      "They": 6515,
      "rog": 6516,
      "Ġemotion": 6517,
      "ĠMass": 6518,
      "Ġprominent": 6519,
      "Ġdescription": 6520,
      "Ġdoor": 6521,
      "sembly": 6522,
      "ĠNetw": 6523,
      "Ġnoted": 6524,
      "acific": 6525,
      "ĠChildren": 6526,
      "Ġimpossible": 6527,
      "Ġdepart": 6528,
      "Ġsurvey": 6529,
      "Ġregardless": 6530,
      "Ġadaptability": 6531,
      "Ġfloor": 6532,
      "Se": 6533,
      "Ġknowing": 6534,
      "with": 6535,
      "iled": 6536,
      "add": 6537,
      "ĠFollow": 6538,
      "Ġrecognizing": 6539,
      "Ġlung": 6540,
      "Ġdestroy": 6541,
      "Ġlighting": 6542,
      "Ġweap": 6543,
      "Ġprotecting": 6544,
      "tra": 6545,
      "Ġther": 6546,
      "Ġran": 6547,
      "Ġrestaurant": 6548,
      "aly": 6549,
      "ailed": 6550,
      "Ġcatch": 6551,
      "ĠEnh": 6552,
      "Ġnor": 6553,
      "ĠProject": 6554,
      "iform": 6555,
      "isher": 6556,
      "Ġtourism": 6557,
      "Ġflavors": 6558,
      "ĠBer": 6559,
      "ĠLever": 6560,
      "iest": 6561,
      "Ġreviews": 6562,
      "Ġpow": 6563,
      "Ġwait": 6564,
      "Ġexclusive": 6565,
      "Ġpaid": 6566,
      "Ġ2004": 6567,
      "Ġcollect": 6568,
      "Ġneighb": 6569,
      "Ġlinks": 6570,
      "bi": 6571,
      "rolog": 6572,
      "Ġrent": 6573,
      "ĠImplementing": 6574,
      "Ġevaluating": 6575,
      "Ġconduct": 6576,
      "ĠOpen": 6577,
      "ĠOrig": 6578,
      "ĠDan": 6579,
      "eutic": 6580,
      "ĠâĢ¦": 6581,
      "ĠDeveloping": 6582,
      "75": 6583,
      "Ġprison": 6584,
      "Ġdesigning": 6585,
      "Ġsurpris": 6586,
      "ĠAtt": 6587,
      "Ġcurren": 6588,
      "Ġspeak": 6589,
      "Ġaspiring": 6590,
      "ĠCri": 6591,
      "Ġentirely": 6592,
      "igenous": 6593,
      "lets": 6594,
      "gers": 6595,
      "lers": 6596,
      "Ġavailability": 6597,
      "Ġaudio": 6598,
      "Ġjobs": 6599,
      "eyond": 6600,
      "oints": 6601,
      "CC": 6602,
      "ĠNon": 6603,
      "Ġclassic": 6604,
      "pet": 6605,
      "Ġradiation": 6606,
      "Ġstanding": 6607,
      "rem": 6608,
      "App": 6609,
      "Ġtalking": 6610,
      "ĠGuidelines": 6611,
      "aph": 6612,
      "From": 6613,
      "ĠCultural": 6614,
      "Ġdetermined": 6615,
      "Ġparticipate": 6616,
      "mentation": 6617,
      "col": 6618,
      "Ġforced": 6619,
      "ĠLake": 6620,
      "Ġtexture": 6621,
      "Ġcouple": 6622,
      "ĠSmith": 6623,
      "ĠAD": 6624,
      "Ġ2020": 6625,
      "ĠLo": 6626,
      "Ġtum": 6627,
      "Ġexistence": 6628,
      "Ġstock": 6629,
      "ĠLike": 6630,
      "Ġinvolvement": 6631,
      "Ġresponsibilities": 6632,
      "Ġod": 6633,
      "ĠMiddle": 6634,
      "Ġshel": 6635,
      "inder": 6636,
      "inally": 6637,
      "Ġconfigur": 6638,
      "ĠCamp": 6639,
      "Ġstorm": 6640,
      "orter": 6641,
      "itter": 6642,
      "tising": 6643,
      "Ġhero": 6644,
      "Let": 6645,
      "dep": 6646,
      "Ġvolunte": 6647,
      "Ġdaughter": 6648,
      "Ġexecution": 6649,
      "Ġtracking": 6650,
      "kes": 6651,
      "antly": 6652,
      "Ġproactive": 6653,
      "etit": 6654,
      "Ġeveryday": 6655,
      "cell": 6656,
      "33": 6657,
      "ndrome": 6658,
      "Ġkept": 6659,
      "Ġquan": 6660,
      "ean": 6661,
      "Ġenforcement": 6662,
      "ĠRobert": 6663,
      "Ġsport": 6664,
      "umber": 6665,
      "Ġmeal": 6666,
      "ĠCOVID": 6667,
      "Ġexplo": 6668,
      "ĠFort": 6669,
      "Ġcontrolled": 6670,
      "Ġregim": 6671,
      "Ġbill": 6672,
      "Ġtranslated": 6673,
      "Ġaf": 6674,
      "ena": 6675,
      "uma": 6676,
      "ĠCommission": 6677,
      "ĠEncourage": 6678,
      "Ġagents": 6679,
      "conn": 6680,
      "Ġtrend": 6681,
      "Ġproteins": 6682,
      "Ġsophistic": 6683,
      "iger": 6684,
      "Ġletters": 6685,
      "Ġfle": 6686,
      "Ġship": 6687,
      "Ġimpressive": 6688,
      "gl": 6689,
      "Ġentities": 6690,
      "Ġoverwhel": 6691,
      "Ġharmful": 6692,
      "Ġsacri": 6693,
      "Ġpiv": 6694,
      "ĠOcean": 6695,
      "ĠMedia": 6696,
      "Ġupper": 6697,
      "Ġentertainment": 6698,
      "Ġmainly": 6699,
      "Ġbol": 6700,
      "Ġexpansion": 6701,
      "Ġinspired": 6702,
      "oxide": 6703,
      "Ġtang": 6704,
      "ĠPriv": 6705,
      "Ġspend": 6706,
      "Ġcouns": 6707,
      "Ġlargely": 6708,
      "aturally": 6709,
      "Ġdispar": 6710,
      "ĠMichael": 6711,
      "rb": 6712,
      "65": 6713,
      "olf": 6714,
      "uty": 6715,
      "ota": 6716,
      "Ġprotocols": 6717,
      "Ġperman": 6718,
      "Ġcoin": 6719,
      "ĠFace": 6720,
      "Ġphrases": 6721,
      "racts": 6722,
      "Ġgod": 6723,
      "yard": 6724,
      "PR": 6725,
      "Ġaccurately": 6726,
      "Ġcrime": 6727,
      "Ġincident": 6728,
      "mans": 6729,
      "ĠTypes": 6730,
      "Ġestablishing": 6731,
      "Ġknows": 6732,
      "Ġcontrovers": 6733,
      "ĠLatin": 6734,
      "ruit": 6735,
      "Ġnutrition": 6736,
      "rooms": 6737,
      "Ġindeed": 6738,
      "Ġuniversity": 6739,
      "Ġentry": 6740,
      "ptions": 6741,
      "Ġloans": 6742,
      "Ġerrors": 6743,
      "ini": 6744,
      "Ġclick": 6745,
      "Ġcombining": 6746,
      "Ġvitamin": 6747,
      "ĠMuseum": 6748,
      "Ġdil": 6749,
      "Ġexplored": 6750,
      "Ġmissing": 6751,
      "Once": 6752,
      "rep": 6753,
      "Ġrough": 6754,
      "pread": 6755,
      "Ġrecre": 6756,
      "cons": 6757,
      "Ġgenes": 6758,
      "ĠST": 6759,
      "hi": 6760,
      "Ġ90": 6761,
      "Why": 6762,
      "Ġwire": 6763,
      "ona": 6764,
      "Ġhyper": 6765,
      "eli": 6766,
      "Ġsett": 6767,
      "Ġimper": 6768,
      "asm": 6769,
      "Ġrelation": 6770,
      "Ġframework": 6771,
      "irms": 6772,
      "ĠCompany": 6773,
      "name": 6774,
      "throp": 6775,
      "arding": 6776,
      "Ġdesire": 6777,
      "Ġdistinc": 6778,
      "ĠFrank": 6779,
      "anguage": 6780,
      "Ġpurchase": 6781,
      "Ġwestern": 6782,
      "Ġpresentation": 6783,
      "Ġstem": 6784,
      "Ġtried": 6785,
      "ĠGrow": 6786,
      "Ġsort": 6787,
      "Ġyoun": 6788,
      "Ġsuggested": 6789,
      "Ġmarked": 6790,
      "Ġinfections": 6791,
      "Ġsufficient": 6792,
      "Ġcompatibility": 6793,
      "erative": 6794,
      "Ġreporting": 6795,
      "Ġpractition": 6796,
      "Ġcann": 6797,
      "Ġsurfaces": 6798,
      "Ġ70": 6799,
      "Yes": 6800,
      "Ġmachines": 6801,
      "irt": 6802,
      "asy": 6803,
      "Ġagreement": 6804,
      "ĠEffective": 6805,
      "Ġentreprene": 6806,
      "such": 6807,
      "Ġedge": 6808,
      "Ġsuffering": 6809,
      "Ġcoverage": 6810,
      "ĠGood": 6811,
      "Ġspeaking": 6812,
      "ifest": 6813,
      "Ġargument": 6814,
      "Ġfluid": 6815,
      "Ġdecide": 6816,
      "EL": 6817,
      "Ġcards": 6818,
      "Ġrelev": 6819,
      "Ġfif": 6820,
      "Ġprint": 6821,
      "ĠStreet": 6822,
      "Ġadventure": 6823,
      "Our": 6824,
      "olk": 6825,
      "alled": 6826,
      "Ġpand": 6827,
      "ĠOper": 6828,
      "Ġyellow": 6829,
      "Ġachieved": 6830,
      "Ġborder": 6831,
      "Ġtrial": 6832,
      "Ġcenters": 6833,
      "ascular": 6834,
      "ĠAnalyze": 6835,
      "Expl": 6836,
      "Ġstret": 6837,
      "Ġwriter": 6838,
      "ĠSuper": 6839,
      "Ġchemicals": 6840,
      "ĠConst": 6841,
      "ĠBalancing": 6842,
      "Ġremained": 6843,
      "According": 6844,
      "Ġrecycl": 6845,
      "zed": 6846,
      "Ġmyst": 6847,
      "Ġcomfortable": 6848,
      "bing": 6849,
      "Ġ(\"": 6850,
      "Ġstarts": 6851,
      "Ġanalytics": 6852,
      "Ġreti": 6853,
      "Ġsections": 6854,
      "Ġmetrics": 6855,
      "Ð»": 6856,
      "ĠAnn": 6857,
      "bles": 6858,
      "Ġven": 6859,
      "tism": 6860,
      "Ġdish": 6861,
      "lock": 6862,
      "Americ": 6863,
      "\")": 6864,
      "Ġcomplement": 6865,
      "Ġroof": 6866,
      "Ġconstraints": 6867,
      "oys": 6868,
      "soft": 6869,
      "isp": 6870,
      "Ġcompetit": 6871,
      "Ġgoverning": 6872,
      "idespread": 6873,
      "Ġcardi": 6874,
      "ĠNor": 6875,
      "ĠApplying": 6876,
      "CO": 6877,
      "Ġpu": 6878,
      "Ġ2001": 6879,
      "ĠSpecial": 6880,
      "ĠLess": 6881,
      "ĠVirgin": 6882,
      "à´": 6883,
      "ĠPop": 6884,
      "ĠOpportun": 6885,
      "ĠIniti": 6886,
      "inity": 6887,
      "Ġ1990": 6888,
      "Ġoccurred": 6889,
      "ĠĠĠĠĠĠĠĠ": 6890,
      "Ġsurve": 6891,
      "owing": 6892,
      "iff": 6893,
      "Ġfruits": 6894,
      "Ġrub": 6895,
      "ĠIll": 6896,
      "ployment": 6897,
      "Ġcars": 6898,
      "Ġsti": 6899,
      "En": 6900,
      "Ġmath": 6901,
      "Ġaffects": 6902,
      "Ġmeals": 6903,
      "ĠComb": 6904,
      "Ġcorner": 6905,
      "Ġdetect": 6906,
      "Ġmountain": 6907,
      "Ġpra": 6908,
      "Ġpersonnel": 6909,
      "Ġwalls": 6910,
      "Ġwet": 6911,
      "lity": 6912,
      "ML": 6913,
      "stone": 6914,
      "osc": 6915,
      "ĠSpace": 6916,
      "Ġdiagnosis": 6917,
      "ĠSpirit": 6918,
      "Ġapparent": 6919,
      "New": 6920,
      "Ġsend": 6921,
      "Ġgram": 6922,
      "which": 6923,
      "100": 6924,
      "ÛĮ": 6925,
      "Ġnorms": 6926,
      "Ġmanner": 6927,
      "otic": 6928,
      "roc": 6929,
      "osite": 6930,
      "Ġbelief": 6931,
      "Ġdefense": 6932,
      "ĠHall": 6933,
      "Cl": 6934,
      "Ġencounter": 6935,
      "Ġbird": 6936,
      "Ġscore": 6937,
      "Ġsongs": 6938,
      "ĠUtilizing": 6939,
      "Ġsubstance": 6940,
      "Ġloyalty": 6941,
      "Ġcollected": 6942,
      "78": 6943,
      "Ġmemories": 6944,
      "Part": 6945,
      "Ġ2003": 6946,
      "ĠHam": 6947,
      "Ġwisdom": 6948,
      "Ġveter": 6949,
      "Ġdiscrim": 6950,
      "ĠAp": 6951,
      "heast": 6952,
      "Ġmuscles": 6953,
      "phone": 6954,
      "Ġbrands": 6955,
      "ĠComput": 6956,
      "Ġmaximize": 6957,
      "ighter": 6958,
      "ĠArmy": 6959,
      "unic": 6960,
      "Ġhearing": 6961,
      "Ġerror": 6962,
      "Ġtele": 6963,
      "alities": 6964,
      "Ġdance": 6965,
      "ĠPrim": 6966,
      "Ġlimits": 6967,
      "ĠBen": 6968,
      "Ġemployment": 6969,
      "ficiency": 6970,
      "Ġrural": 6971,
      "quis": 6972,
      "Ġtro": 6973,
      "Ġreceiving": 6974,
      "Ġorganizational": 6975,
      "Ġpromotes": 6976,
      "Ġentity": 6977,
      "words": 6978,
      "Ġgirls": 6979,
      "Ġalgorithms": 6980,
      "Ġdrink": 6981,
      "Ġportion": 6982,
      "ĠCivil": 6983,
      "Ġhus": 6984,
      "ĠCost": 6985,
      "ĠJose": 6986,
      "otes": 6987,
      "Ġactively": 6988,
      "Ġparamount": 6989,
      "entist": 6990,
      "Ġcertainly": 6991,
      "Ġholding": 6992,
      "urturing": 6993,
      "Ġintegrated": 6994,
      "ĠTop": 6995,
      "anged": 6996,
      "Ġpreval": 6997,
      "onomic": 6998,
      "Ġtransmission": 6999,
      "Ġdepends": 7000,
      "ĠFoot": 7001,
      "Ġrail": 7002,
      "Ġvulnerable": 7003,
      "Ġcompassion": 7004,
      "Ġpit": 7005,
      "Ġacceler": 7006,
      "Ġprocedure": 7007,
      "rants": 7008,
      "Lastly": 7009,
      "ĠVer": 7010,
      "Ġwalking": 7011,
      "ivity": 7012,
      "Ġimmun": 7013,
      "ĠRecogn": 7014,
      "Ġreaching": 7015,
      "Ġadm": 7016,
      "Ġcolumn": 7017,
      "Ġdefine": 7018,
      "Ġproceed": 7019,
      "Ġvoc": 7020,
      "Ġsuperior": 7021,
      "DF": 7022,
      "SS": 7023,
      "Ġovers": 7024,
      "ĠFlorida": 7025,
      "Ġutilize": 7026,
      "Ġdebate": 7027,
      "Ġartificial": 7028,
      "ĠSym": 7029,
      "Ġemerged": 7030,
      "ION": 7031,
      "ĠTom": 7032,
      "liam": 7033,
      "ĠManufact": 7034,
      "ias": 7035,
      "ĠChic": 7036,
      "Ġbrows": 7037,
      "ĠMuslim": 7038,
      "cies": 7039,
      "isation": 7040,
      "ĠGal": 7041,
      "Ġwidespread": 7042,
      "Ġmixed": 7043,
      "Ġreturned": 7044,
      "Ġmedications": 7045,
      "Ġfilms": 7046,
      "Ġloved": 7047,
      "Ġbonds": 7048,
      "ĠPacific": 7049,
      "ĠUnder": 7050,
      "ĠProfession": 7051,
      "Ġshot": 7052,
      "Ġforth": 7053,
      "ĠAdap": 7054,
      "Ġfill": 7055,
      "Ġwaves": 7056,
      "Ġorganized": 7057,
      "Ġwilling": 7058,
      "Ġbreaking": 7059,
      "enders": 7060,
      "ruct": 7061,
      "usions": 7062,
      "ĠRights": 7063,
      "Ġownership": 7064,
      "ĠMad": 7065,
      "ĠBible": 7066,
      "Ġpoverty": 7067,
      "Ġexperiencing": 7068,
      "Ġprioritize": 7069,
      "Ġthanks": 7070,
      "imal": 7071,
      "Ġnarrow": 7072,
      "Ġmand": 7073,
      "Ġmotivation": 7074,
      "Ġdisput": 7075,
      "Ġaccountability": 7076,
      "state": 7077,
      "Ġcombat": 7078,
      "arr": 7079,
      "ĠKingdom": 7080,
      "Ġabst": 7081,
      "ĠRad": 7082,
      "ston": 7083,
      "ancer": 7084,
      "Ġpure": 7085,
      "Ġshapes": 7086,
      "Ġappeared": 7087,
      "Ġembark": 7088,
      "Ġknew": 7089,
      "Ġsudden": 7090,
      "ĠExample": 7091,
      "Ġexpressed": 7092,
      "Ġarmy": 7093,
      "99": 7094,
      "Ġcos": 7095,
      "inning": 7096,
      "Ġgrade": 7097,
      "Ġbot": 7098,
      "gar": 7099,
      "Ġsought": 7100,
      "ien": 7101,
      "Ġmanual": 7102,
      "Ġobjective": 7103,
      "Ġtheoretical": 7104,
      "Ġtargeted": 7105,
      "Ġpp": 7106,
      "Ġseed": 7107,
      "Ġembrace": 7108,
      "Ġpricing": 7109,
      "manship": 7110,
      "Ġdemonstrating": 7111,
      "ĠEnter": 7112,
      "Ġgenre": 7113,
      "Ġelection": 7114,
      "RE": 7115,
      "Ġframeworks": 7116,
      "Ġexplores": 7117,
      "Ġintroduce": 7118,
      "Ġowners": 7119,
      "ĠCarol": 7120,
      "Ġfertil": 7121,
      "Ġlose": 7122,
      "Ġcompris": 7123,
      "ĠJud": 7124,
      "Ġdetermining": 7125,
      "Ġinstruments": 7126,
      "Ġconstantly": 7127,
      "ĠHappy": 7128,
      "roke": 7129,
      "Ġpropor": 7130,
      "ĠFederal": 7131,
      "Ġraise": 7132,
      "ache": 7133,
      "Ġcandidates": 7134,
      "Ġunlike": 7135,
      "ĠMethod": 7136,
      "Ġmarriage": 7137,
      "Ġdelves": 7138,
      "itan": 7139,
      "Ġparalle": 7140,
      "wing": 7141,
      "Ġ35": 7142,
      "Read": 7143,
      "Ġrelevance": 7144,
      "Ġmetab": 7145,
      "ĠArticle": 7146,
      "Ġhardware": 7147,
      "Ġtraveling": 7148,
      "ception": 7149,
      "Ġbiological": 7150,
      "rates": 7151,
      "ĠFinally": 7152,
      "RO": 7153,
      "ĠBur": 7154,
      "Ġtheme": 7155,
      "Ġexpensive": 7156,
      "ĠAnother": 7157,
      "Ġmoral": 7158,
      "Ġrom": 7159,
      "Ġvig": 7160,
      "inem": 7161,
      "Ġeducators": 7162,
      "à°": 7163,
      "Ġlesson": 7164,
      "rid": 7165,
      "Ġinflammation": 7166,
      "ĠSelf": 7167,
      "ĠChristianity": 7168,
      "ĠAustralian": 7169,
      "ĠImplications": 7170,
      "vestig": 7171,
      "Ġsed": 7172,
      "ola": 7173,
      "Ġque": 7174,
      "Ġtip": 7175,
      "Ġexempl": 7176,
      "ĠFoundation": 7177,
      "Ġleveraging": 7178,
      "ĠCD": 7179,
      "ye": 7180,
      "Ġmeant": 7181,
      "Ġvariations": 7182,
      "ĠMedicine": 7183,
      "Ġmood": 7184,
      "ĠFactors": 7185,
      "kin": 7186,
      "Ġfib": 7187,
      "Ġnutrients": 7188,
      "Ġselling": 7189,
      "Ġaccum": 7190,
      "ĠParis": 7191,
      "Ġdecrease": 7192,
      "Ġathle": 7193,
      "ĠItaly": 7194,
      "ticed": 7195,
      "Ġperceived": 7196,
      "ÙĨ": 7197,
      "Ġflowers": 7198,
      "inn": 7199,
      "Ġcriminal": 7200,
      "Ġscenario": 7201,
      "liament": 7202,
      "Ġlooked": 7203,
      "mers": 7204,
      "azz": 7205,
      "ĠWomen": 7206,
      "Ġcamera": 7207,
      "Ġfoss": 7208,
      "Ġnaturally": 7209,
      "ĠPeter": 7210,
      "That": 7211,
      "Ġhorse": 7212,
      "anning": 7213,
      "Ġtherapeutic": 7214,
      "36": 7215,
      "Ġactors": 7216,
      "ĠPerformance": 7217,
      "Ġtoler": 7218,
      "abin": 7219,
      "Ġdrawn": 7220,
      "ĠLocal": 7221,
      "ĠLouis": 7222,
      "Ġcompounds": 7223,
      "tious": 7224,
      "ĠFil": 7225,
      "Ġcryptocurren": 7226,
      "aware": 7227,
      "ĠCommit": 7228,
      "Ġdesigners": 7229,
      "Ġchildhood": 7230,
      "iat": 7231,
      "Ġhouses": 7232,
      "Ġstreet": 7233,
      "ĠSing": 7234,
      "ĠIT": 7235,
      "scale": 7236,
      "ĠSil": 7237,
      "Ġcryst": 7238,
      "Ġstored": 7239,
      "osa": 7240,
      "Ġvideos": 7241,
      "ora": 7242,
      "Ġtight": 7243,
      "Ġoblig": 7244,
      "Sc": 7245,
      "ĠCross": 7246,
      "Ġnic": 7247,
      "Ġmyth": 7248,
      "ĠMil": 7249,
      "iveness": 7250,
      "Ġexpanding": 7251,
      "Ġillustrate": 7252,
      "Ġinspire": 7253,
      "Ġfarmers": 7254,
      "Ġimmense": 7255,
      "Ġampl": 7256,
      "Ġdistrict": 7257,
      "Ġobvious": 7258,
      "Ġcrafting": 7259,
      "Ġtow": 7260,
      "Ġpartner": 7261,
      "ician": 7262,
      "Ġtravelers": 7263,
      "Ġscre": 7264,
      "Ġextent": 7265,
      "Ġmac": 7266,
      "Ġ2002": 7267,
      "Ġ2019": 7268,
      "Ġarms": 7269,
      "Ġpoet": 7270,
      "Ġpreparing": 7271,
      "ĠCharles": 7272,
      "Ġdrinking": 7273,
      "do": 7274,
      "ĠBrown": 7275,
      "Ġdipl": 7276,
      "Ġease": 7277,
      "Ġfell": 7278,
      "Ġvaccine": 7279,
      "38": 7280,
      "aked": 7281,
      "stood": 7282,
      "onge": 7283,
      "ĠPolicy": 7284,
      "39": 7285,
      "ĠOptions": 7286,
      "cipl": 7287,
      "âĢĿ,": 7288,
      "Ġunn": 7289,
      "Ġtransactions": 7290,
      "ĠMeanwhile": 7291,
      "Ġoptimize": 7292,
      "Ġspok": 7293,
      "Ġversus": 7294,
      "Ġmetic": 7295,
      "Ġnerv": 7296,
      "Ġboasts": 7297,
      "ogether": 7298,
      "Ġdelicate": 7299,
      "cel": 7300,
      "Ġtoxic": 7301,
      "Ġruns": 7302,
      "Ġcompens": 7303,
      "Ġappealing": 7304,
      "Ġsignals": 7305,
      "fortunately": 7306,
      "Ġrhyth": 7307,
      "Ġwindow": 7308,
      "Ġobstacles": 7309,
      "Ġbattery": 7310,
      "Ġcooperation": 7311,
      "Ġconversion": 7312,
      "rons": 7313,
      "Ġtone": 7314,
      "ype": 7315,
      "bra": 7316,
      "Ġretain": 7317,
      "Ġfabric": 7318,
      "Ġmusicians": 7319,
      "oto": 7320,
      "Ġende": 7321,
      "Ø±": 7322,
      "acher": 7323,
      "Ġinfluenced": 7324,
      "RI": 7325,
      "Ġpromising": 7326,
      "Ġfewer": 7327,
      "48": 7328,
      "Ġflo": 7329,
      "Ġphotograph": 7330,
      "Ġphotos": 7331,
      "ĠColor": 7332,
      "ĠEmbracing": 7333,
      "Despite": 7334,
      "ita": 7335,
      "Ġcompromising": 7336,
      "Ġdivided": 7337,
      "using": 7338,
      "zen": 7339,
      "Ġpurchasing": 7340,
      "Ġstable": 7341,
      "Although": 7342,
      "Ġpil": 7343,
      "Ġnoise": 7344,
      "aser": 7345,
      "Ġsilver": 7346,
      "ĠYet": 7347,
      "Ġabsolute": 7348,
      "ĠCanadian": 7349,
      "ĠLight": 7350,
      "Ġsamples": 7351,
      "Ġattributes": 7352,
      "Ġinclusive": 7353,
      "ĠBill": 7354,
      "Ġadopted": 7355,
      "Ġpivotal": 7356,
      "burg": 7357,
      "itchen": 7358,
      "Ġconnecting": 7359,
      "Ġrevealed": 7360,
      "tims": 7361,
      "ĠMaster": 7362,
      "Ġbridge": 7363,
      "Ġexpenses": 7364,
      "Ġpredict": 7365,
      "position": 7366,
      "Ġstudied": 7367,
      "oven": 7368,
      "Ġsecondary": 7369,
      "Ġbio": 7370,
      "Ġallerg": 7371,
      "titudes": 7372,
      "Ġstatistics": 7373,
      "Ġserver": 7374,
      "Ġprofit": 7375,
      "Ġcontrols": 7376,
      "ĠProtection": 7377,
      "Ġinterpretation": 7378,
      "Ġaesthetics": 7379,
      "Ġsomew": 7380,
      "Ġconvenience": 7381,
      "ella": 7382,
      "Ġinhab": 7383,
      "Ġinvestors": 7384,
      "Ġflight": 7385,
      "Ġgrown": 7386,
      "Ġoperate": 7387,
      "plicated": 7388,
      "Ġexists": 7389,
      "Ġvict": 7390,
      "Ġassum": 7391,
      "ointed": 7392,
      "ircraft": 7393,
      "Ġovercome": 7394,
      "Ġcas": 7395,
      "Ġopened": 7396,
      "Ġdecor": 7397,
      "ĠDise": 7398,
      "Ġmoisture": 7399,
      "Ġswe": 7400,
      "ĠBC": 7401,
      "Ġattempts": 7402,
      "tible": 7403,
      "Ġcultivate": 7404,
      "Ġagricultural": 7405,
      "Ġcollaborative": 7406,
      "ione": 7407,
      "Ġacquis": 7408,
      "onym": 7409,
      "Ġsuit": 7410,
      "Ġsour": 7411,
      "ĠIre": 7412,
      "Ġcountless": 7413,
      "Ġvisible": 7414,
      "ĠDev": 7415,
      "ĠBefore": 7416,
      "Ġpowers": 7417,
      "ĠWild": 7418,
      "Ġarise": 7419,
      "Ġincred": 7420,
      "ĠLegal": 7421,
      "Ã¢": 7422,
      "Ġforming": 7423,
      "Ġreveals": 7424,
      "Ġreviewer": 7425,
      "Ġkil": 7426,
      "Ġclosed": 7427,
      "ĠMarket": 7428,
      "Ġfees": 7429,
      "mic": 7430,
      "Ġgall": 7431,
      "asures": 7432,
      "ĠHand": 7433,
      "anes": 7434,
      "Ġindex": 7435,
      "ĠCommunication": 7436,
      "Ġconcentration": 7437,
      "Ġswim": 7438,
      "Ġsurvival": 7439,
      "Ġmemorable": 7440,
      "Ġ186": 7441,
      "ĠOffice": 7442,
      "Ġspending": 7443,
      "ĠCatholic": 7444,
      "zym": 7445,
      "---": 7446,
      "Ġparticipating": 7447,
      "Ġcomputers": 7448,
      "Ġwasn": 7449,
      "Ġcovers": 7450,
      "ĠList": 7451,
      "ĠNatural": 7452,
      "Ġcolleagues": 7453,
      "Ġphilosophy": 7454,
      "gu": 7455,
      "aud": 7456,
      "Ġemployee": 7457,
      "ĠDeterm": 7458,
      "Ġturning": 7459,
      "ras": 7460,
      "Ġregulation": 7461,
      "ĠVisual": 7462,
      "Ġdestination": 7463,
      "ypt": 7464,
      "Ġaward": 7465,
      "Ġmarg": 7466,
      "ĠBackground": 7467,
      "Ġplate": 7468,
      "Ġnewsp": 7469,
      "Ġversions": 7470,
      "Ġcorporate": 7471,
      "Ġfinds": 7472,
      "Ġdescrip": 7473,
      "inter": 7474,
      "Ġblockchain": 7475,
      "iblical": 7476,
      "ĠFacebook": 7477,
      "Sp": 7478,
      "atal": 7479,
      "Ġpapers": 7480,
      "Ġmuse": 7481,
      "Ġends": 7482,
      "hered": 7483,
      "Ġmechanical": 7484,
      "Gu": 7485,
      "Ġsick": 7486,
      "OP": 7487,
      "Ġinteractive": 7488,
      "eted": 7489,
      "ĠLab": 7490,
      "bert": 7491,
      "ĠAdminist": 7492,
      "ĠCurrent": 7493,
      "Ġdiff": 7494,
      "Ġminimum": 7495,
      "Ġpayment": 7496,
      "Ġbutter": 7497,
      "Ġsizes": 7498,
      "Ġprinciple": 7499,
      "Ġapplicable": 7500,
      "ĠExamination": 7501,
      "Ġflour": 7502,
      "asket": 7503,
      "Ġprofessor": 7504,
      "illa": 7505,
      "cest": 7506,
      "Ġnurs": 7507,
      "Ġethnic": 7508,
      "Ġfant": 7509,
      "Ġped": 7510,
      "ua": 7511,
      "Ġinnovations": 7512,
      "ĠIII": 7513,
      "ĠAff": 7514,
      "ĠWood": 7515,
      "Ġconcerned": 7516,
      "Ġwish": 7517,
      "Ġtraits": 7518,
      "Ġmassive": 7519,
      "Ġbear": 7520,
      "ulty": 7521,
      "aver": 7522,
      "luding": 7523,
      "Ġaccomplish": 7524,
      "ĠCBD": 7525,
      "Ind": 7526,
      "ĠTake": 7527,
      "avy": 7528,
      "34": 7529,
      "Ġacting": 7530,
      "box": 7531,
      "Ġwave": 7532,
      "weight": 7533,
      "Ġprofile": 7534,
      "ĠReport": 7535,
      "Ġindependence": 7536,
      "Ġinn": 7537,
      "ĠAnswer": 7538,
      "ĠMaterial": 7539,
      "ĠEnd": 7540,
      "Ġfinance": 7541,
      "usivity": 7542,
      "oting": 7543,
      "Ġbrown": 7544,
      "onds": 7545,
      "ĠJews": 7546,
      "Ġaccident": 7547,
      "ĠLeague": 7548,
      "Ġinvestments": 7549,
      "ĠChristians": 7550,
      "Ac": 7551,
      "Ġshifts": 7552,
      "just": 7553,
      "tw": 7554,
      "ĠNever": 7555,
      "etary": 7556,
      "Ġelectron": 7557,
      "ĊĠĠĠ": 7558,
      "Ġnuances": 7559,
      "orship": 7560,
      "Ġcredibility": 7561,
      "Ġdimensions": 7562,
      "Ġsavings": 7563,
      "Ġvisibility": 7564,
      "Ġdatabase": 7565,
      "ĠPrin": 7566,
      "vision": 7567,
      "zy": 7568,
      "ĠFund": 7569,
      "ĠExploration": 7570,
      "ndom": 7571,
      ".).": 7572,
      "Ġrepeated": 7573,
      "Ġdebt": 7574,
      "Ġflexible": 7575,
      "Ġreflecting": 7576,
      "ĠHenry": 7577,
      "Ġthoughtful": 7578,
      "dri": 7579,
      "norm": 7580,
      "Ġstructural": 7581,
      "Ġintriguing": 7582,
      "anda": 7583,
      "Ġfixed": 7584,
      "ĠOpportunities": 7585,
      "Ġpig": 7586,
      "Ġliver": 7587,
      "ĠAud": 7588,
      "ĠEU": 7589,
      "Many": 7590,
      "ĠBook": 7591,
      "Ġmedication": 7592,
      "Ġadaptation": 7593,
      "Ġtargets": 7594,
      "Cho": 7595,
      "Ġworry": 7596,
      "Ġforget": 7597,
      "ĠBased": 7598,
      "ĠWal": 7599,
      "Ġloan": 7600,
      "Ġlibrary": 7601,
      "ourage": 7602,
      "Ġcash": 7603,
      "pection": 7604,
      "Ġgreatest": 7605,
      "ĠLand": 7606,
      "ĠDeep": 7607,
      "ĠFree": 7608,
      "Ġalignment": 7609,
      "Ġneighborhood": 7610,
      "ĠUnderstand": 7611,
      "Ġbroken": 7612,
      "Ġadopting": 7613,
      "Ġsight": 7614,
      "ĠIP": 7615,
      "Ġtur": 7616,
      "ĠRock": 7617,
      "Ġargue": 7618,
      "Cons": 7619,
      "Ġpractitioners": 7620,
      "Ġcounty": 7621,
      "Ġexplains": 7622,
      "Ġprotected": 7623,
      "Ġfalls": 7624,
      "Ġperception": 7625,
      "ĠMill": 7626,
      "Ġholistic": 7627,
      "Ġreinfor": 7628,
      "erals": 7629,
      "Can": 7630,
      "Ġpersonality": 7631,
      "Ġtheories": 7632,
      "Ġemphasis": 7633,
      "37": 7634,
      "Ġfacilitating": 7635,
      "Ġrestrictions": 7636,
      "Ġblend": 7637,
      "reed": 7638,
      "orrect": 7639,
      "ĠResources": 7640,
      "Ġgradually": 7641,
      "ĠIran": 7642,
      "Ġtub": 7643,
      "Ġfitness": 7644,
      "cho": 7645,
      "Ġintense": 7646,
      "Ġyounger": 7647,
      "htt": 7648,
      "Ġil": 7649,
      "Ġappoint": 7650,
      "ĠVictor": 7651,
      "Ġwildlife": 7652,
      "tist": 7653,
      "ĠInvestig": 7654,
      "ett": 7655,
      "Ġturns": 7656,
      "Ġprecision": 7657,
      "Ġlegislation": 7658,
      "ĠChicago": 7659,
      "Ġbath": 7660,
      "from": 7661,
      "page": 7662,
      "ĠEmpower": 7663,
      "Ġrelief": 7664,
      "Ġintake": 7665,
      "Ġdivine": 7666,
      "ograp": 7667,
      "Ġwid": 7668,
      "Ġchief": 7669,
      "Ġuniverse": 7670,
      "ĠSar": 7671,
      "Ġuniform": 7672,
      "ait": 7673,
      "ĠNature": 7674,
      "dem": 7675,
      "Ġharmon": 7676,
      "TS": 7677,
      "Ġfailed": 7678,
      "BA": 7679,
      "Ġfounded": 7680,
      "Ġhospit": 7681,
      "ostic": 7682,
      "incare": 7683,
      "ĠIreland": 7684,
      "Ġdivision": 7685,
      "Ġsubstances": 7686,
      "Ġphenomenon": 7687,
      "Ġenrich": 7688,
      "Ġcomparison": 7689,
      "ws": 7690,
      "Ġ45": 7691,
      "body": 7692,
      "Ġequival": 7693,
      "Ġreact": 7694,
      "icken": 7695,
      "azon": 7696,
      "anta": 7697,
      "Ġofficers": 7698,
      "icks": 7699,
      "Ġescape": 7700,
      "Ġpossibly": 7701,
      "Ġsoldiers": 7702,
      "Ġ1980": 7703,
      "Ġcompare": 7704,
      "abis": 7705,
      "teries": 7706,
      "Ġagriculture": 7707,
      "Ġhundreds": 7708,
      "ĠParty": 7709,
      "Ġextraord": 7710,
      "uting": 7711,
      "CA": 7712,
      "Ġcharm": 7713,
      "ulties": 7714,
      "Ġreflects": 7715,
      "ĠSouthern": 7716,
      "Ġfan": 7717,
      "ĠWhich": 7718,
      "Ġgeographical": 7719,
      "Ġpron": 7720,
      "Ġreward": 7721,
      "ĠIncre": 7722,
      "Ġcomments": 7723,
      "Ġcurriculum": 7724,
      "rence": 7725,
      "Ġtrials": 7726,
      "kins": 7727,
      "het": 7728,
      "Ġsucceed": 7729,
      "letes": 7730,
      "Ġjudg": 7731,
      "Ġterror": 7732,
      "Ġ?": 7733,
      "war": 7734,
      "IP": 7735,
      "Ġbalanced": 7736,
      "ĠBig": 7737,
      "Ġdelight": 7738,
      "ĠNations": 7739,
      "Ġwriters": 7740,
      "ĠSignific": 7741,
      "connected": 7742,
      "CS": 7743,
      "ĠHaw": 7744,
      "Ġannounced": 7745,
      "ĠMont": 7746,
      "uests": 7747,
      "Ġastron": 7748,
      "Ġhusband": 7749,
      "sem": 7750,
      "Ġdetection": 7751,
      "ello": 7752,
      "ĠBudd": 7753,
      "Ġretail": 7754,
      "Ġshares": 7755,
      "ĠÂ£": 7756,
      "ĠTor": 7757,
      "oning": 7758,
      "uke": 7759,
      "Ġdust": 7760,
      "ecessary": 7761,
      "ooked": 7762,
      "Ġabund": 7763,
      "Ġrepair": 7764,
      "organ": 7765,
      "Ġaesthetic": 7766,
      "Ġ1970": 7767,
      "ĠRevolution": 7768,
      "Ġtargeting": 7769,
      "Ġfalse": 7770,
      "ĠCreating": 7771,
      "Ġpersons": 7772,
      "Ġmechanism": 7773,
      "ĠFost": 7774,
      "Ġextend": 7775,
      "ĠMel": 7776,
      "ĠTem": 7777,
      "omic": 7778,
      "oves": 7779,
      "Ġprofiles": 7780,
      "ĠFamily": 7781,
      "Write": 7782,
      "ographics": 7783,
      "oving": 7784,
      "Ġcontributed": 7785,
      "Ġjoy": 7786,
      "Ġoutcome": 7787,
      "ĠSupp": 7788,
      "ĠPan": 7789,
      "Ġevolved": 7790,
      "Ġhistoric": 7791,
      "Ġconclude": 7792,
      "irus": 7793,
      "ĠCharacter": 7794,
      "Ġterritory": 7795,
      "uisine": 7796,
      "Ġunp": 7797,
      "Ġpassing": 7798,
      "Ġlisted": 7799,
      "Ġfishing": 7800,
      "Ġnecessarily": 7801,
      "Ġnit": 7802,
      "ĠSund": 7803,
      "Ġaircraft": 7804,
      "uris": 7805,
      "Ġpreced": 7806,
      "ĠEastern": 7807,
      "à¸": 7808,
      "Ġexhibit": 7809,
      "Ġrandom": 7810,
      "iology": 7811,
      "oted": 7812,
      "95": 7813,
      "that": 7814,
      "everal": 7815,
      "Ġmild": 7816,
      "Ġfold": 7817,
      "Ġfort": 7818,
      "ework": 7819,
      "night": 7820,
      "Ġpandemic": 7821,
      "oga": 7822,
      "Cont": 7823,
      "atever": 7824,
      "ĠOnly": 7825,
      "ixture": 7826,
      "ÙĦ": 7827,
      "ĠPotential": 7828,
      "Ġdifferenti": 7829,
      "Ġupdated": 7830,
      "Ġpump": 7831,
      "CT": 7832,
      "Ġstunning": 7833,
      "Ġdefe": 7834,
      "Ġfu": 7835,
      "Ġachievements": 7836,
      "ĠEgypt": 7837,
      "ĠKh": 7838,
      "Ġoriginally": 7839,
      "ĠWord": 7840,
      "Ġdietary": 7841,
      "Ġble": 7842,
      "ĠNorthern": 7843,
      "Ġpreserve": 7844,
      "Ġtaught": 7845,
      "ĠSpain": 7846,
      "Ġhttps": 7847,
      "Ġoutdoor": 7848,
      "Ġtexts": 7849,
      "ady": 7850,
      "ailing": 7851,
      "Ġarrest": 7852,
      "Ġcomprehension": 7853,
      "Ġforg": 7854,
      "Ġstriking": 7855,
      "utch": 7856,
      "spec": 7857,
      "Ġnurturing": 7858,
      "Ġseeing": 7859,
      "Ġmarine": 7860,
      "Ġfeeding": 7861,
      "Ġsubtle": 7862,
      "idity": 7863,
      "Ġchamp": 7864,
      "500": 7865,
      "DS": 7866,
      "Ġgro": 7867,
      "Ġemphasizes": 7868,
      "rations": 7869,
      "osh": 7870,
      "Ġnewly": 7871,
      "Ġtiny": 7872,
      "Ġreplaced": 7873,
      "Ġcream": 7874,
      "Ġimplemented": 7875,
      "ĠValley": 7876,
      "Be": 7877,
      "Ġsupplement": 7878,
      "ĠSov": 7879,
      "Ġvisiting": 7880,
      "Ġreader": 7881,
      "Ġrivers": 7882,
      "ĠGame": 7883,
      "Ġvictims": 7884,
      "Ġneck": 7885,
      "Ġadoption": 7886,
      "ideo": 7887,
      "Ġcompetitors": 7888,
      "Ġepis": 7889,
      "Ġtes": 7890,
      "ĠAbout": 7891,
      "Ġluxury": 7892,
      "Ġaccompan": 7893,
      "Ġstre": 7894,
      "ĠHear": 7895,
      "Ġmarried": 7896,
      "ĠPractice": 7897,
      "Ġlib": 7898,
      "De": 7899,
      "Ġdurability": 7900,
      "eric": 7901,
      "Do": 7902,
      "Ġroute": 7903,
      "Ġhabitat": 7904,
      "ĠLeveraging": 7905,
      "Ġimplies": 7906,
      "Ġkm": 7907,
      "overing": 7908,
      "Ġwarning": 7909,
      "Ġsyndrome": 7910,
      "ĠManufacturing": 7911,
      "sis": 7912,
      "ĠPerson": 7913,
      "standing": 7914,
      "Ġdepic": 7915,
      "ĠHy": 7916,
      "Ġcovering": 7917,
      "Ġowner": 7918,
      "Ġdiges": 7919,
      "oned": 7920,
      "ĠAN": 7921,
      "Ġpool": 7922,
      "ustice": 7923,
      "Ġmolecules": 7924,
      "Ġstead": 7925,
      "elihood": 7926,
      "Ġthrive": 7927,
      "Ġzone": 7928,
      "bur": 7929,
      "ĠHot": 7930,
      "Eng": 7931,
      "theless": 7932,
      "Ġadvertising": 7933,
      "ĠJoseph": 7934,
      "rings": 7935,
      "itors": 7936,
      "stein": 7937,
      "Ġgovernance": 7938,
      "ĠRoyal": 7939,
      "Ġobtained": 7940,
      "Ġgaming": 7941,
      "azing": 7942,
      "Ġbringing": 7943,
      "Ġitem": 7944,
      "onn": 7945,
      "Ġlatter": 7946,
      "Ġinvent": 7947,
      "Ġnine": 7948,
      "Ġdecline": 7949,
      "Ġbread": 7950,
      "ĠBank": 7951,
      "Ġmortg": 7952,
      "Ġring": 7953,
      "Ġscal": 7954,
      "Ġ31": 7955,
      "32": 7956,
      "Ġclothing": 7957,
      "Eff": 7958,
      "Ġgap": 7959,
      "Ġrecipe": 7960,
      "Ġmeasured": 7961,
      "ĠNAS": 7962,
      "Ġwatching": 7963,
      "Ġpets": 7964,
      "Ġfourth": 7965,
      "ĠStrategy": 7966,
      "date": 7967,
      "Ġcour": 7968,
      "Ġunus": 7969,
      "Ġdispos": 7970,
      "Ġextends": 7971,
      "oids": 7972,
      "During": 7973,
      "Ġdensity": 7974,
      "Ġunless": 7975,
      "ĠOx": 7976,
      "Ġmoves": 7977,
      "Ġ1999": 7978,
      "ĠTimes": 7979,
      "ĠSetting": 7980,
      "Ġdispl": 7981,
      "Ġschedul": 7982,
      "Ġdioxide": 7983,
      "Ġpolitic": 7984,
      "Ġsky": 7985,
      "nowned": 7986,
      "Ġvote": 7987,
      "Ġinstallation": 7988,
      "Ġautonom": 7989,
      "ĠHill": 7990,
      "Ġample": 7991,
      "Ġpatience": 7992,
      "Ġgent": 7993,
      "gue": 7994,
      "ulin": 7995,
      "ĠAvoid": 7996,
      "Ġlikelihood": 7997,
      "ĠAge": 7998,
      "ifically": 7999,
      "ĠInnov": 8000,
      "ĠVirginia": 8001,
      "Ġpeak": 8002,
      "198": 8003,
      "aste": 8004,
      "Ġarrangements": 8005,
      "ortive": 8006,
      "Ġpretty": 8007,
      "Ġpromise": 8008,
      "Ġcentered": 8009,
      "Ġ188": 8010,
      "Ġdomain": 8011,
      "umps": 8012,
      "Ġtransc": 8013,
      "Ġkinds": 8014,
      "Ġworkshops": 8015,
      "44": 8016,
      "Ġextraordinary": 8017,
      "rus": 8018,
      "ropical": 8019,
      "Ġcultivating": 8020,
      "Ġteen": 8021,
      "Ġdepos": 8022,
      "chers": 8023,
      "Ġmentions": 8024,
      "Ġcup": 8025,
      "omatic": 8026,
      "Ġtall": 8027,
      "Ġborrow": 8028,
      "Ġexcept": 8029,
      "Ġprovider": 8030,
      "ker": 8031,
      "atoes": 8032,
      "Ġsupplies": 8033,
      "ĠQuality": 8034,
      "ĠAnalyzing": 8035,
      "fol": 8036,
      "ĠMicrosoft": 8037,
      "Ġminds": 8038,
      "ortion": 8039,
      "ĠStart": 8040,
      "Ġalter": 8041,
      "ĠAnti": 8042,
      "ano": 8043,
      "itt": 8044,
      "Ġorigins": 8045,
      "arks": 8046,
      "Ġrid": 8047,
      "Ġconserv": 8048,
      "Ġunknown": 8049,
      "Ġweaknesses": 8050,
      "oung": 8051,
      "Ġorganisms": 8052,
      "CD": 8053,
      "Ġavoiding": 8054,
      "akistan": 8055,
      "Ġstrike": 8056,
      "itar": 8057,
      "hering": 8058,
      "agram": 8059,
      "asters": 8060,
      "Ġtreating": 8061,
      "Ġfrequent": 8062,
      "Ġpermanent": 8063,
      "Ġske": 8064,
      "Ġexplicitly": 8065,
      "Ġunderstood": 8066,
      "Ġagent": 8067,
      "ĠPet": 8068,
      "Ġscript": 8069,
      "ĠChange": 8070,
      "Ġinches": 8071,
      "ĠExperience": 8072,
      "uation": 8073,
      "Ġcareers": 8074,
      "Ġrecipes": 8075,
      "ĠTraining": 8076,
      "urrent": 8077,
      "Ġempowers": 8078,
      "Ġconstitution": 8079,
      "Ġut": 8080,
      "hemical": 8081,
      "Ġadverse": 8082,
      "Äģ": 8083,
      "Ġlosses": 8084,
      "Ġtension": 8085,
      "Ġcher": 8086,
      "Ġsensitivity": 8087,
      "hire": 8088,
      "Ġmanager": 8089,
      "Ġbanks": 8090,
      "inction": 8091,
      "Ġvariable": 8092,
      "ĠTrust": 8093,
      "Ġpercentage": 8094,
      "Ġdepartment": 8095,
      "ĠEr": 8096,
      "Ġindicators": 8097,
      "Ġstores": 8098,
      "ĠTour": 8099,
      "Ġpregnancy": 8100,
      "discipl": 8101,
      "ĠChapter": 8102,
      "Ġcentre": 8103,
      "aria": 8104,
      "'d": 8105,
      "Ġopinions": 8106,
      "Ġblocks": 8107,
      "Ġdistinctive": 8108,
      "Ġaccepted": 8109,
      "ĠAtlantic": 8110,
      "Ġfly": 8111,
      "ĠStay": 8112,
      "Ġnest": 8113,
      "Ġidentification": 8114,
      "Ġsophisticated": 8115,
      "Ġsupposed": 8116,
      "FL": 8117,
      "ĠAddressing": 8118,
      "Ġemploying": 8119,
      "Ġax": 8120,
      "ĠStory": 8121,
      "ĠRest": 8122,
      "itim": 8123,
      "Ġskilled": 8124,
      "Ġassessments": 8125,
      "--------------------------------": 8126,
      "ĠOh": 8127,
      "Ġsatell": 8128,
      "Ġunity": 8129,
      "Ġmys": 8130,
      "Ġaer": 8131,
      "ĠRequ": 8132,
      "ĠCheck": 8133,
      "Ġjoined": 8134,
      "onia": 8135,
      "but": 8136,
      "uster": 8137,
      "Ġresid": 8138,
      "ĠAcademy": 8139,
      "ĠPay": 8140,
      "Ġgenerating": 8141,
      "ĠLin": 8142,
      "Ġconcrete": 8143,
      "Ġsequence": 8144,
      "rane": 8145,
      "Ġslowly": 8146,
      "Ġfurn": 8147,
      "Ġtimely": 8148,
      "ãĤ": 8149,
      "Ġcomplications": 8150,
      "Ġguests": 8151,
      "Ġtwice": 8152,
      "Ġfinished": 8153,
      "Ġnet": 8154,
      "Ġsod": 8155,
      "ĠGet": 8156,
      "ĠCul": 8157,
      "Ġfiction": 8158,
      "merce": 8159,
      "Ġapps": 8160,
      "Ġaqu": 8161,
      "Ġunable": 8162,
      "Ġjump": 8163,
      "Ġages": 8164,
      "Ġemerge": 8165,
      "Ġessence": 8166,
      "Ġacknowledging": 8167,
      "76": 8168,
      "Ġscores": 8169,
      "Ġpeers": 8170,
      "Ġvisually": 8171,
      "obile": 8172,
      "ĠRichard": 8173,
      "Ġmur": 8174,
      "Ġacids": 8175,
      "Ġprotective": 8176,
      "Te": 8177,
      "ĠInvest": 8178,
      "Ġpossibility": 8179,
      "zil": 8180,
      "aval": 8181,
      "through": 8182,
      "Ġperm": 8183,
      "ĠTar": 8184,
      "esis": 8185,
      "ongevity": 8186,
      "Ġshop": 8187,
      "Ġdeaths": 8188,
      "ĠVar": 8189,
      "ĠDou": 8190,
      "Ġrepresented": 8191,
      "lessly": 8192,
      "medi": 8193,
      "Ġleverage": 8194,
      "cript": 8195,
      "Go": 8196,
      "Ġbuying": 8197,
      "Ġdriver": 8198,
      "ĠThough": 8199,
      "ĠCry": 8200,
      "va": 8201,
      "Ġrefine": 8202,
      "Rec": 8203,
      "Ġalle": 8204,
      "ih": 8205,
      "Ġcatering": 8206,
      "ĠLar": 8207,
      "Ġinten": 8208,
      "Ġsession": 8209,
      "Ġhumanity": 8210,
      "Ġcomposed": 8211,
      "American": 8212,
      "Ġexplained": 8213,
      "ĠComple": 8214,
      "Ġmitigate": 8215,
      "Ps": 8216,
      "ateral": 8217,
      "ĠChristmas": 8218,
      "My": 8219,
      "ĠGrowth": 8220,
      "Ġessays": 8221,
      "Ġbreathing": 8222,
      "Ġfeels": 8223,
      "ĠPC": 8224,
      "Throughout": 8225,
      "ĠApple": 8226,
      "Ġaccessories": 8227,
      "Ġgrant": 8228,
      "Imagine": 8229,
      "Ġversatile": 8230,
      "emia": 8231,
      "ING": 8232,
      "ĠMartin": 8233,
      "Ġfiber": 8234,
      "elfare": 8235,
      "hat": 8236,
      "ubs": 8237,
      "Ðº": 8238,
      "Ġdriven": 8239,
      "Ġpersonalized": 8240,
      "ĠBir": 8241,
      "Ġreliability": 8242,
      "Ġfighting": 8243,
      "Since": 8244,
      "Ġscenes": 8245,
      "Ġoverview": 8246,
      "Ġautomotive": 8247,
      "ĠFootball": 8248,
      "itting": 8249,
      "Ġharvest": 8250,
      "ailable": 8251,
      "ani": 8252,
      "Ġrenowned": 8253,
      "```": 8254,
      "Ġfestiv": 8255,
      "ĠFinancial": 8256,
      "teen": 8257,
      "Ġrising": 8258,
      "Ġliterary": 8259,
      "Ġequally": 8260,
      "ĠGuide": 8261,
      "iate": 8262,
      "Ġdifficulty": 8263,
      "ushed": 8264,
      "elled": 8265,
      "Ġpaint": 8266,
      "Ġeleg": 8267,
      "Ġlegacy": 8268,
      "azine": 8269,
      "Ġcoc": 8270,
      "ĠColumb": 8271,
      "Ġclar": 8272,
      "Ġori": 8273,
      "Ġhem": 8274,
      "Ġdoctors": 8275,
      "Ġsharp": 8276,
      "isted": 8277,
      "Ġtemporary": 8278,
      "ĠBu": 8279,
      "ittle": 8280,
      "Ġmanifest": 8281,
      "ĠMulti": 8282,
      "Ġratio": 8283,
      "Ġda": 8284,
      "ĠHoly": 8285,
      "Ġremoval": 8286,
      "Ġenzym": 8287,
      "Ġshowcasing": 8288,
      "Ġcrops": 8289,
      "Ġgone": 8290,
      "Ġtrading": 8291,
      "ĠLanguage": 8292,
      "31": 8293,
      "ĠEvolution": 8294,
      "Ġaband": 8295,
      "ĠDen": 8296,
      "ials": 8297,
      "ĠPrepar": 8298,
      "brid": 8299,
      "Ġpreferred": 8300,
      "Ġaddresses": 8301,
      "Ġintegral": 8302,
      "Ġ1998": 8303,
      "Ġgreatly": 8304,
      "Ġvessels": 8305,
      "fe": 8306,
      "Ġauthenticity": 8307,
      "ĠProfessional": 8308,
      "fast": 8309,
      "Ġalloc": 8310,
      "Ġtick": 8311,
      "Ġpromises": 8312,
      "Out": 8313,
      "ĠSand": 8314,
      "Ġincidents": 8315,
      "Ġkitchen": 8316,
      "Ġmarks": 8317,
      "ĠGeorg": 8318,
      "Ġ1960": 8319,
      "Ġclot": 8320,
      "Ġdoors": 8321,
      "Ġpenal": 8322,
      "ĠHead": 8323,
      "Ġiconic": 8324,
      "ĠStar": 8325,
      "Ġrefuge": 8326,
      "ĠSer": 8327,
      "Ġagreed": 8328,
      "Ġfacility": 8329,
      "ugh": 8330,
      "Ġbene": 8331,
      "venues": 8332,
      "eping": 8333,
      "ĠJeff": 8334,
      "ĠHind": 8335,
      "ĠConstitution": 8336,
      "ĠFire": 8337,
      "Ġdeter": 8338,
      "Ġinterpre": 8339,
      "economic": 8340,
      "Ġrepresenting": 8341,
      "46": 8342,
      "Ġarray": 8343,
      "ĠLabor": 8344,
      "ĠNeg": 8345,
      "Ġadjustments": 8346,
      "Ġcomputing": 8347,
      "Ġtutorial": 8348,
      "Ġphoto": 8349,
      "ĠSignificance": 8350,
      "Ġagreements": 8351,
      "ĠSoviet": 8352,
      "Ġpushing": 8353,
      "Ġinterface": 8354,
      "Ġsectors": 8355,
      "Ġgal": 8356,
      "Ġpressing": 8357,
      "Ġvariables": 8358,
      "irty": 8359,
      "Ġindicating": 8360,
      "itude": 8361,
      "ĠRespons": 8362,
      "Ġben": 8363,
      "Ġcorn": 8364,
      "IA": 8365,
      "Ġframe": 8366,
      "Ġseamlessly": 8367,
      "Ġwhenever": 8368,
      "Ġacquired": 8369,
      "Bl": 8370,
      "ustration": 8371,
      "ushing": 8372,
      "Ġdiscrimination": 8373,
      "Ġdownload": 8374,
      "ĠObama": 8375,
      "Ġscope": 8376,
      "Ġdirected": 8377,
      "Ġdamaged": 8378,
      "points": 8379,
      "55": 8380,
      "Ġtransforming": 8381,
      "ĠWindows": 8382,
      "Ġsan": 8383,
      "ĠGrand": 8384,
      "cium": 8385,
      "ĠEmpire": 8386,
      "Ġdecade": 8387,
      "ca": 8388,
      "ĠWhere": 8389,
      "Ñĥ": 8390,
      "Ġthoroughly": 8391,
      "Ġfav": 8392,
      "ranch": 8393,
      "ĠCraf": 8394,
      "Ġvan": 8395,
      "Ġdistributed": 8396,
      "Finally": 8397,
      "ĠMa": 8398,
      "###": 8399,
      "Ġmetals": 8400,
      "ĠRome": 8401,
      "Ġspark": 8402,
      "Ġoneself": 8403,
      "bridge": 8404,
      "isting": 8405,
      "aired": 8406,
      "Ġancest": 8407,
      "Ġshell": 8408,
      "Ġopposite": 8409,
      "Stud": 8410,
      "Ġdifficulties": 8411,
      "Ġsou": 8412,
      "pled": 8413,
      "ĠLee": 8414,
      "ques": 8415,
      "Ġsocieties": 8416,
      "Ġingredient": 8417,
      "Ġresulted": 8418,
      "Ġsuffer": 8419,
      "Ġuniversal": 8420,
      "Ġfeatured": 8421,
      "Translate": 8422,
      "made": 8423,
      "Ġmode": 8424,
      "fac": 8425,
      "hend": 8426,
      "Ġhonest": 8427,
      "Ġinsects": 8428,
      "Ġchart": 8429,
      "Ġdetermination": 8430,
      "ĠSecret": 8431,
      "abil": 8432,
      "Ġassociation": 8433,
      "ĠAltern": 8434,
      "Ġmeasuring": 8435,
      "LE": 8436,
      "ruption": 8437,
      "ĠAsian": 8438,
      "Ġdelay": 8439,
      "Ġdining": 8440,
      "Ġlots": 8441,
      "Ġcertific": 8442,
      "iture": 8443,
      "Ġflower": 8444,
      "gs": 8445,
      "Ġcatal": 8446,
      "estic": 8447,
      "Ġinhib": 8448,
      "47": 8449,
      "Ġcaptured": 8450,
      "ĠKorea": 8451,
      "ĠAny": 8452,
      "ĠBetween": 8453,
      "Ġadministrative": 8454,
      "Ġrice": 8455,
      "ĠGard": 8456,
      "Ġaspir": 8457,
      "Ġdocumentation": 8458,
      "Ġcohes": 8459,
      "Ġexpressions": 8460,
      "Ġilleg": 8461,
      "Ġinfected": 8462,
      "Ġarrived": 8463,
      "Ġly": 8464,
      "Ġdisturb": 8465,
      "Ġattach": 8466,
      "Ġgrace": 8467,
      "Ġraising": 8468,
      "Ġtested": 8469,
      "Ġles": 8470,
      "ĠMental": 8471,
      "Ġtroops": 8472,
      "Ġlongevity": 8473,
      "ĠAmazon": 8474,
      "Ġinterconnected": 8475,
      "Ġsuscep": 8476,
      "Ġmanagers": 8477,
      "ĠPlatform": 8478,
      "ĠParticip": 8479,
      "Ġencounters": 8480,
      "Ġfaces": 8481,
      "Ġuniversities": 8482,
      "Ġfirms": 8483,
      "Ġnice": 8484,
      "class": 8485,
      "Ġathletes": 8486,
      "Ġbreath": 8487,
      "Ġfriendly": 8488,
      "mes": 8489,
      "Ġca": 8490,
      "Ġcritically": 8491,
      "Ġtea": 8492,
      "ĠPub": 8493,
      "ĠJer": 8494,
      "Ġtravels": 8495,
      "uten": 8496,
      "ĠPur": 8497,
      "Ġdates": 8498,
      "Ġreproduc": 8499,
      "ĠUSA": 8500,
      "Ġeld": 8501,
      "ĠJack": 8502,
      "ĠIrish": 8503,
      "Ġacquisition": 8504,
      "Ġoptimization": 8505,
      "Ġgenres": 8506,
      "Ġengines": 8507,
      "ĠPakistan": 8508,
      "Ġpin": 8509,
      "ĠDoes": 8510,
      "Ġadherence": 8511,
      "Ġcarrying": 8512,
      "Ġunderscores": 8513,
      "Ġeastern": 8514,
      "ĠRom": 8515,
      "Ġdemocratic": 8516,
      "ĠTeam": 8517,
      "oxid": 8518,
      "aped": 8519,
      "Ġliteracy": 8520,
      "Ġprime": 8521,
      "Ġmagnetic": 8522,
      "ĠÎ": 8523,
      "Ġchrom": 8524,
      "Ġunt": 8525,
      "apped": 8526,
      "Ġborders": 8527,
      "Ġposts": 8528,
      "cher": 8529,
      "Ġsupportive": 8530,
      "urric": 8531,
      "Ġattitudes": 8532,
      "ractions": 8533,
      "Ġshopping": 8534,
      "Ġlegisl": 8535,
      "ece": 8536,
      "Ġgaps": 8537,
      "Ġcharges": 8538,
      "Ġinfluential": 8539,
      "uctu": 8540,
      "Ġshut": 8541,
      "oric": 8542,
      "lections": 8543,
      "ĠHor": 8544,
      "Ġequivalent": 8545,
      "worth": 8546,
      "Ġlaunch": 8547,
      "Ġcoastal": 8548,
      "esity": 8549,
      "Ġattending": 8550,
      "Ġfossil": 8551,
      "ĠCy": 8552,
      "olism": 8553,
      "Ġpracticing": 8554,
      "Ġentrepreneurs": 8555,
      "Ġhealthier": 8556,
      "ĠGene": 8557,
      "ĠPenn": 8558,
      "Ġaffordable": 8559,
      "Ġofficer": 8560,
      "Ab": 8561,
      "Ġdism": 8562,
      "ĠSwed": 8563,
      "urisd": 8564,
      "ĠNASA": 8565,
      "Ġhun": 8566,
      "hist": 8567,
      "Ġmessaging": 8568,
      "Ġprospects": 8569,
      "Ġmeetings": 8570,
      "Ġschedule": 8571,
      "Ġpursuing": 8572,
      "entral": 8573,
      "Most": 8574,
      "Ġentails": 8575,
      "Ġpose": 8576,
      "Ġstere": 8577,
      "Ġgast": 8578,
      "Ġwarming": 8579,
      "otypes": 8580,
      "Ġrecording": 8581,
      "Ġmoon": 8582,
      "ectivity": 8583,
      "Ġwearing": 8584,
      "yal": 8585,
      "depth": 8586,
      "Ġsuggesting": 8587,
      "Ġdoubt": 8588,
      "Ġhotel": 8589,
      "ĠNeed": 8590,
      "disciplinary": 8591,
      "tage": 8592,
      "ecurity": 8593,
      "ĠClear": 8594,
      "Ġcong": 8595,
      "Ġ500": 8596,
      "Ġecosystems": 8597,
      "ĠDiscussion": 8598,
      "arn": 8599,
      "rey": 8600,
      "Ġgluc": 8601,
      "Ġgrasp": 8602,
      "ĠTal": 8603,
      "ĠCard": 8604,
      "ĠPass": 8605,
      "Ġinstrument": 8606,
      "Ġmolecular": 8607,
      "ĠCommittee": 8608,
      "Ġattached": 8609,
      "imate": 8610,
      "Ġsocio": 8611,
      "Ġconsiderable": 8612,
      "UN": 8613,
      "Ġfra": 8614,
      "Ġislands": 8615,
      "ĠSustain": 8616,
      "front": 8617,
      "ĠIde": 8618,
      "Ġproven": 8619,
      "Ġsurvive": 8620,
      "Ġcaptivating": 8621,
      "Ġpayments": 8622,
      "solving": 8623,
      "Ġherself": 8624,
      "itely": 8625,
      "Lear": 8626,
      "Ġindirect": 8627,
      "Ġhonor": 8628,
      "Ġpremium": 8629,
      "mun": 8630,
      "ĠBrand": 8631,
      "Ġadversity": 8632,
      "Ġpolicym": 8633,
      "ĠSpecifically": 8634,
      "UR": 8635,
      "Ġorders": 8636,
      "Ġobservations": 8637,
      "piec": 8638,
      "Ġgaining": 8639,
      "ĠJul": 8640,
      "ĠRegularly": 8641,
      "raq": 8642,
      "Ġfunctioning": 8643,
      "itations": 8644,
      "rd": 8645,
      "Ġcaught": 8646,
      "ĠZeal": 8647,
      "Ġexperiments": 8648,
      "osion": 8649,
      "ĠBlue": 8650,
      "Ġnetworking": 8651,
      "Ġsenior": 8652,
      "ĠNetwork": 8653,
      "Ġtrained": 8654,
      "Ġneuro": 8655,
      "Ġnone": 8656,
      "Ġmatches": 8657,
      "Ġpaths": 8658,
      "Ġcelebrate": 8659,
      "Ġexecutive": 8660,
      "Ġdecreased": 8661,
      "Ġestablishment": 8662,
      "Ġunnecessary": 8663,
      "Ġbes": 8664,
      "Ġsovere": 8665,
      "Ġviewers": 8666,
      "iratory": 8667,
      "ĠEp": 8668,
      "unicip": 8669,
      "77": 8670,
      "Ġsymbols": 8671,
      "Ġmodifications": 8672,
      "Ġbiology": 8673,
      "ĠExplain": 8674,
      "ovascular": 8675,
      "Ġmastering": 8676,
      "ĠLibrary": 8677,
      "ĠMinister": 8678,
      "otherapy": 8679,
      "Ġrewards": 8680,
      "Ġintersection": 8681,
      "ĠLos": 8682,
      "ĠContent": 8683,
      "ocolate": 8684,
      "Ġunion": 8685,
      "Ġcompos": 8686,
      "Ġgrew": 8687,
      "Ġcommunications": 8688,
      "ĠPlanning": 8689,
      "Ġstrive": 8690,
      "Ġinitiative": 8691,
      "Ġstom": 8692,
      "Ġencry": 8693,
      "ĠPrior": 8694,
      "Ġlie": 8695,
      "anches": 8696,
      "Ġputting": 8697,
      "Ġstones": 8698,
      "Ġended": 8699,
      "isco": 8700,
      "osph": 8701,
      "ĠThree": 8702,
      "olester": 8703,
      "Ġaging": 8704,
      "ĠDistrict": 8705,
      "Ġprogression": 8706,
      "olves": 8707,
      "Ġbackgrounds": 8708,
      "irable": 8709,
      "Ġadopt": 8710,
      "Ġgem": 8711,
      "HO": 8712,
      "Ġeco": 8713,
      "Ġdisciplines": 8714,
      "Ġcollaborations": 8715,
      "Ġforests": 8716,
      "ĠRh": 8717,
      "ĠIN": 8718,
      "ĠSunday": 8719,
      "ĠChoose": 8720,
      "ĠCarolina": 8721,
      "ĠApproach": 8722,
      "ĠSoft": 8723,
      "Ġpsychology": 8724,
      "Ġguess": 8725,
      "Ġclassical": 8726,
      "Of": 8727,
      "Ġtweet": 8728,
      "Ġinfer": 8729,
      "Ġtransformative": 8730,
      "Ġobserve": 8731,
      "Ġweapons": 8732,
      "Ġincorrect": 8733,
      "Ġdrivers": 8734,
      "ĠZealand": 8735,
      "ĠEmerg": 8736,
      "Ġwider": 8737,
      "Ġcycl": 8738,
      "ifts": 8739,
      "ĠBoard": 8740,
      "ĠHosp": 8741,
      "49": 8742,
      "Ġpull": 8743,
      "Ġseemed": 8744,
      "ferent": 8745,
      "Ġskincare": 8746,
      "erts": 8747,
      "Ġplanned": 8748,
      "sen": 8749,
      "Ġworse": 8750,
      "Ġprayer": 8751,
      "Ġanalys": 8752,
      "ropol": 8753,
      "Ġcarb": 8754,
      "eem": 8755,
      "Ġdiscipline": 8756,
      "abul": 8757,
      "Ġinterior": 8758,
      "iner": 8759,
      "Ġinduc": 8760,
      "Ġparad": 8761,
      "itarian": 8762,
      "Ġlights": 8763,
      "Ġreasonable": 8764,
      "ĠRoad": 8765,
      "Ġcandidate": 8766,
      "Ġbones": 8767,
      "ĠPolitical": 8768,
      "ĠUnlike": 8769,
      "ĠBrazil": 8770,
      "avior": 8771,
      "Ġ1997": 8772,
      "under": 8773,
      "lective": 8774,
      "Ġpeer": 8775,
      "ĠPhysical": 8776,
      "rehend": 8777,
      "ĠYear": 8778,
      "anger": 8779,
      "ĠIss": 8780,
      "Ġ2021": 8781,
      "Ġ189": 8782,
      "Ġshaped": 8783,
      "oking": 8784,
      "igan": 8785,
      "ĠEmpowerment": 8786,
      "IM": 8787,
      "Ñĭ": 8788,
      "Ġwound": 8789,
      "parts": 8790,
      "Ġgear": 8791,
      "Ġutilized": 8792,
      "enities": 8793,
      "ĠSchol": 8794,
      "Ġadvis": 8795,
      "vals": 8796,
      "Ġdemocracy": 8797,
      "ĠFac": 8798,
      "Ġduration": 8799,
      "ĠEmphas": 8800,
      "Ġ×": 8801,
      "Ġjourneys": 8802,
      "ĠTraditional": 8803,
      "yan": 8804,
      "aways": 8805,
      "Ġcompletion": 8806,
      "ĠRis": 8807,
      "ĠAdministration": 8808,
      "ĠMen": 8809,
      "Ġtangible": 8810,
      "ĠJohnson": 8811,
      "Ġfro": 8812,
      "Ġrelaxation": 8813,
      "Ġconducting": 8814,
      "Ġminerals": 8815,
      "Ġfluctu": 8816,
      "Ġmold": 8817,
      "Ġsubsc": 8818,
      "Ġsoul": 8819,
      "Ġtrauma": 8820,
      "Ġordinary": 8821,
      "Ġbeneath": 8822,
      "icide": 8823,
      "Ġsecuring": 8824,
      "oom": 8825,
      "ĠMaking": 8826,
      "Ġrooms": 8827,
      "Ġspecified": 8828,
      "Ġinclusivity": 8829,
      "Ġcriticism": 8830,
      "Ġstreams": 8831,
      "igned": 8832,
      "ĠTwitter": 8833,
      "sm": 8834,
      "Ġmilest": 8835,
      "Ġschem": 8836,
      "Ġrocks": 8837,
      "oper": 8838,
      "Ġwheel": 8839,
      "ĠPen": 8840,
      "ulates": 8841,
      "ĠSummary": 8842,
      "ĠMind": 8843,
      "Ġkeeps": 8844,
      "Ġbag": 8845,
      "ĠCulture": 8846,
      "opic": 8847,
      "Ġevening": 8848,
      "cular": 8849,
      "Ġwithd": 8850,
      "Ġbiggest": 8851,
      "Ġissued": 8852,
      "ĠProfessor": 8853,
      "Ġsmoking": 8854,
      "Ġlaunched": 8855,
      "ĠDisease": 8856,
      "Ġepid": 8857,
      "Ġrenewable": 8858,
      "Ġintensity": 8859,
      "Ġlawy": 8860,
      "blem": 8861,
      "Ġsigned": 8862,
      "ĠOrganization": 8863,
      "una": 8864,
      "Ġopens": 8865,
      "Ġult": 8866,
      "Ġdefensive": 8867,
      "econd": 8868,
      "Ġmeters": 8869,
      "Ġcomplexities": 8870,
      "Ġproduces": 8871,
      "Ġturb": 8872,
      "ĠPM": 8873,
      "Ġ300": 8874,
      "Ġretention": 8875,
      "Ġvictory": 8876,
      "Ġattractive": 8877,
      "Ġgreenhouse": 8878,
      "Ġau": 8879,
      "Ġlicens": 8880,
      "Ġcontracts": 8881,
      "ĠMove": 8882,
      "Ġconference": 8883,
      "olesterol": 8884,
      "onday": 8885,
      "Ġantibio": 8886,
      "yroid": 8887,
      "ishment": 8888,
      "Ġentering": 8889,
      "Ġmixture": 8890,
      "iances": 8891,
      "Ġlingu": 8892,
      "ĠInterest": 8893,
      "Ġelig": 8894,
      "Ġtech": 8895,
      "Ġlosing": 8896,
      "ĠEconomic": 8897,
      "uan": 8898,
      "ĠDri": 8899,
      "Ġquanti": 8900,
      "Ġflag": 8901,
      "Ġseat": 8902,
      "Ġcalling": 8903,
      "Ġchannel": 8904,
      "ĠLove": 8905,
      "Ġstrain": 8906,
      "Ġ36": 8907,
      "Ġinterviews": 8908,
      "TH": 8909,
      "ĠHa": 8910,
      "Ġadvances": 8911,
      "ĠComputer": 8912,
      "entists": 8913,
      "vi": 8914,
      "Ġoverwhelming": 8915,
      "Ġworship": 8916,
      "ÙĪ": 8917,
      "Ġboys": 8918,
      "Ġallocation": 8919,
      "Ġsitting": 8920,
      "Ġfilter": 8921,
      "Ġcuisine": 8922,
      "ĠObj": 8923,
      "Ġelected": 8924,
      "change": 8925,
      "iciency": 8926,
      "Ġrelying": 8927,
      "ĠTurk": 8928,
      "Ġ>": 8929,
      "Ġcart": 8930,
      "Ġopposition": 8931,
      "Ġlegs": 8932,
      "Ġfinger": 8933,
      "function": 8934,
      "auc": 8935,
      "ĠSEO": 8936,
      "ested": 8937,
      "Ġlogical": 8938,
      "Ġunusual": 8939,
      "Ġclarity": 8940,
      "heim": 8941,
      "Ġverb": 8942,
      "Ġlists": 8943,
      "Ġremoving": 8944,
      "ĠJim": 8945,
      "Ġindigenous": 8946,
      "ĠMars": 8947,
      "Ġsubt": 8948,
      "rison": 8949,
      "Ġtissues": 8950,
      "ĠPhot": 8951,
      "Ġtalks": 8952,
      "ĠOl": 8953,
      "Ġchecks": 8954,
      "Ġuncertainty": 8955,
      "Ġarmed": 8956,
      "Ġtwenty": 8957,
      "BS": 8958,
      "IF": 8959,
      "itoring": 8960,
      "Ġabstract": 8961,
      "ĠFind": 8962,
      "Ġsto": 8963,
      "ĠEs": 8964,
      "ĠAutom": 8965,
      "Ġrespectively": 8966,
      "Ġinspiring": 8967,
      "Ġhighlighted": 8968,
      "Ġconstructive": 8969,
      "ulpt": 8970,
      "ĠMer": 8971,
      "Ġsunlight": 8972,
      "Ġstick": 8973,
      "Ġrose": 8974,
      "ÅŁ": 8975,
      "ĠSkills": 8976,
      "Ġexpanded": 8977,
      "Ġallev": 8978,
      "ĠWriting": 8979,
      "Ġguard": 8980,
      "Ġachievement": 8981,
      "amins": 8982,
      "Ġtaxes": 8983,
      "Ġstruggles": 8984,
      "Ġvigil": 8985,
      "Ġengineers": 8986,
      "Ġgentle": 8987,
      "Ġbeat": 8988,
      "Ġeffic": 8989,
      "aping": 8990,
      "Ġ1996": 8991,
      "mented": 8992,
      "redit": 8993,
      "Ġcommission": 8994,
      "Ġmining": 8995,
      "BT": 8996,
      "Ã§": 8997,
      "Ġofficially": 8998,
      "CE": 8999,
      "Ġentered": 9000,
      "Ġweigh": 9001,
      "Ġequity": 9002,
      "ĠDeb": 9003,
      "Ġdrives": 9004,
      "Ġphotography": 9005,
      "ictionary": 9006,
      "Ġthrow": 9007,
      "inson": 9008,
      "________": 9009,
      "Ġholiday": 9010,
      "ackson": 9011,
      "ĠIraq": 9012,
      "iana": 9013,
      "Ġaggressive": 9014,
      "ala": 9015,
      "ĠFour": 9016,
      "Ġearning": 9017,
      "amination": 9018,
      "Ġsister": 9019,
      "Ġpackage": 9020,
      "IL": 9021,
      "Ġillum": 9022,
      "Ġjudge": 9023,
      "Up": 9024,
      "Ġhosting": 9025,
      "?âĢĿ": 9026,
      "phones": 9027,
      "Ġparameters": 9028,
      "Ġhall": 9029,
      "Ġemphasize": 9030,
      "ĠSir": 9031,
      "Ġamongst": 9032,
      "ĠSelection": 9033,
      "Ġconsent": 9034,
      "Ġcarries": 9035,
      "ibraries": 9036,
      "ĠWithin": 9037,
      "Rem": 9038,
      "Ġlock": 9039,
      "Ġharmony": 9040,
      "ĠAuthor": 9041,
      "Ġvulnerability": 9042,
      "Ġheating": 9043,
      "Ġneutral": 9044,
      "Ġmeasurement": 9045,
      "heme": 9046,
      "Ġneither": 9047,
      "Ġjudgment": 9048,
      "Ġessentially": 9049,
      "lymp": 9050,
      "Don": 9051,
      "Ġinstalled": 9052,
      "Ġmaps": 9053,
      "Ġupcoming": 9054,
      "Ġjurisd": 9055,
      "ĠSup": 9056,
      "Ġorg": 9057,
      "oston": 9058,
      "Ġceleb": 9059,
      "cking": 9060,
      "Ġasks": 9061,
      "Ġbomb": 9062,
      "ĠLib": 9063,
      "==": 9064,
      "She": 9065,
      "Ġstuff": 9066,
      "Ġattor": 9067,
      "ĠWorks": 9068,
      "Ġhappiness": 9069,
      "alt": 9070,
      "Ġliber": 9071,
      "Ġcoaching": 9072,
      "cultural": 9073,
      "ĠLow": 9074,
      "Ġquiet": 9075,
      "Ġspots": 9076,
      "Ġaffili": 9077,
      "ĠMov": 9078,
      "iological": 9079,
      "arters": 9080,
      "Ġtrail": 9081,
      "Ġvisits": 9082,
      "ĠSpe": 9083,
      "vy": 9084,
      "Ġinher": 9085,
      "Ġproof": 9086,
      "pes": 9087,
      "Ġformats": 9088,
      "Ġmembr": 9089,
      "Ġcouldn": 9090,
      "Ġresc": 9091,
      "ivered": 9092,
      "ĠJava": 9093,
      "agen": 9094,
      "Ġvolcan": 9095,
      "Ġcycles": 9096,
      "ĠCond": 9097,
      "ĠUk": 9098,
      "Ġabnorm": 9099,
      "Ġwelfare": 9100,
      "anned": 9101,
      "Ġconve": 9102,
      "Ġzones": 9103,
      "ĠReading": 9104,
[...]
